e n</w> 481172
t h 389819
i n 374321
e r 368889
a n 283454
c h 275374
e r</w> 264270
e n 226852
u n 220240
i e</w> 166263
c h</w> 160171
e i 158699
s t 155181
a l 153523
e s</w> 143011
th e</w> 142585
a r 137967
e s 118107
a s</w> 118083
l i 117734
t i 115304
an d</w> 115231
i n</w> 111837
a t</w> 111592
o r 111451
e l 111330
w i 110443
a u 110160
e in 109696
o n 106716
un d</w> 98260
o n</w> 97122
in g</w> 91183
i s</w> 90874
t o</w> 90807
s t</w> 89659
r e 88433
o u 87207
s ch 85441
i ch</w> 83043
d i 82286
d ie</w> 81341
i t</w> 80882
o f</w> 78886
a b 78170
m a 77457
t e</w> 77211
d er</w> 75318
r o 73953
g e 70108
b e 70039
e d</w> 64263
th at</w> 63859
v er 63057
a s 61372
o m 59217
a t 56708
w h 56610
a n</w> 55632
r i 55258
l e 55053
d en</w> 54989
s ie</w> 54449
s o</w> 53818
t en</w> 52751
d as</w> 52330
l e</w> 51986
y o 51576
n o 50274
yo u</w> 50145
d e 49970
s i 49524
r a 48747
i st</w> 48303
er e</w> 46909
u r 46461
s e 45928
v e</w> 45660
o l 45644
w e</w> 45209
o r</w> 43654
wi r</w> 43630
w as</w> 42296
ch t</w> 42035
ei n</w> 41259
g en</w> 40721
s a 40675
z u</w> 40147
' s</w> 40095
l y</w> 39812
h a 39379
n i 38157
l o 38132
s e</w> 36987
ein e</w> 36779
m i 35812
v i 35755
th e 35369
n e 34886
th is</w> 34606
g e</w> 34519
a c 34416
d e</w> 33077
t er 33029
s p 32760
w a 32682
h r 32151
di es 30218
en t 28968
b u 28178
d er 28038
p ro 27862
t e 27737
h i 27665
ti on</w> 27529
m e</w> 27526
a l</w> 27400
v on</w> 26953
o p 26793
k e</w> 26328
f ü 26018
as s</w> 25858
un g</w> 25721
` `</w> 25365
u m</w> 25221
- -</w> 25173
en t</w> 25005
t h</w> 24933
l a 24892
n en</w> 24890
' '</w> 24776
d ass</w> 24510
in d</w> 24312
ou t</w> 24158
l d</w> 24133
ni cht</w> 24086
g i 23911
g en 23848
d a 23774
ar e</w> 23738
m e 23719
m it</w> 23254
li ch</w> 23042
ch en</w> 22653
the y</w> 22535
f i 22265
al l</w> 22200
h ab 21981
t er</w> 21827
g o 21683
m o 21322
w or 21235
t z 21125
b i 21063
h t</w> 20978
b e</w> 20699
n a 20617
h r</w> 20529
h o 20407
w en 20104
w ei 19987
f or</w> 19850
ma n</w> 19845
c om 19838
t s</w> 19652
e m</w> 19575
al ly</w> 19545
au f</w> 19403
z u 19384
c k 19311
w ie</w> 19223
ha ve</w> 18979
f or 18951
t u 18771
c e</w> 18771
el l 18762
s u 18724
m u 18704
s en</w> 18626
d o</w> 18565
wh at</w> 18547
c i 18404
t a 18377
w e 18373
on e</w> 18336
f f 18294
no w</w> 18172
g es 18163
al s</w> 18149
ü b 18042
an n</w> 17944
h en</w> 17830
bu t</w> 17769
j e 17752
p e 17732
ou r</w> 17566
w er 17557
t o 17499
d en 17468
m en</w> 17332
p o 17209
p er 16990
b en</w> 16964
h e</w> 16823
fü r</w> 16801
r u 16748
wi th</w> 16723
ti on 16640
f a 16636
st i 16556
m en 16515
r e</w> 16484
n u 16472
ei t</w> 16465
e x 16263
d o 16258
c on 16254
s ich</w> 16022
c an</w> 16006
s ind</w> 15653
ab er</w> 15479
sch en</w> 15447
wi r 15325
hab en</w> 15233
n ' 15213
n' t</w> 15203
wen n</w> 15141
k ö 14928
ein en</w> 14862
w el 14721
th ere</w> 14718
an d 14678
b o 14632
z i 14586
ou ld</w> 14407
ab out</w> 14398
al so</w> 14229
t y</w> 14225
t r 14119
l l</w> 14079
al l 14031
th in 13988
ch e</w> 13986
s om 13848
wa r</w> 13814
de m</w> 13705
m p 13687
a r</w> 13598
g ht</w> 13484
g r 13366
a f 13260
th er</w> 13101
au s 12931
kö n 12926
dies e</w> 12894
no t</w> 12880
h e 12788
e l</w> 12728
q u 12638
ä n 12410
ver y</w> 12052
c o 12038
m y</w> 11952
' re</w> 11914
g u 11831
i m</w> 11660
au s</w> 11563
s o 11560
th ing</w> 11555
j u 11553
d es</w> 11537
t t 11482
g l 11450
m m 11429
s el 11380
ein er</w> 11272
pe op 11252
er en</w> 11217
peop le</w> 11204
p p 11191
r es 11169
st e 11132
d s</w> 11071
d u 11069
f e 11047
li ke</w> 11039
i f</w> 10992
b r 10977
w ar 10954
p l 10953
ol l 10912
g t</w> 10880
e t 10878
f ro 10865
j a 10813
k om 10791
i h 10737
es e</w> 10721
er t</w> 10651
m or 10605
p u 10548
au f 10483
fro m</w> 10416
üb er</w> 10354
an t</w> 10253
st en</w> 10190
u s 10132
g an 10118
h er 10069
v er</w> 9961
ho w</w> 9950
y e 9908
p a 9896
au se</w> 9890
in ter 9852
th ese</w> 9838
m an 9833
g s</w> 9774
c a 9722
t ed</w> 9713
un s</w> 9709
p ar 9682
un s 9670
ch i 9610
ein em</w> 9582
ju st</w> 9574
g er 9545
li e 9536
kön nen</w> 9404
ü r 9318
g a 9310
f in 9276
r ei 9275
b ei 9270
b t</w> 9257
k ing</w> 9245
ch te</w> 9238
p i 9234
al i 9189
hi er</w> 9128
o der</w> 9102
t ra 9083
ur e</w> 9062
u l 9051
wer den</w> 9032
c ause</w> 9028
h al 8872
re a 8831
b es 8742
be cause</w> 8727
d ar 8711
c k</w> 8695
b er 8650
wh en</w> 8650
h at</w> 8546
s h 8525
v or 8482
sp i 8458
s sen</w> 8427
g ro 8406
s en 8406
st a 8315
s y 8310
au ch</w> 8267
i hr 8261
b y</w> 8194
u p</w> 8160
u s</w> 8159
un gen</w> 8114
go ing</w> 8098
k a 8088
l li 8075
es s</w> 8072
ar s</w> 8058
k now</w> 8028
h l 8007
o k</w> 7978
h ere</w> 7915
w o</w> 7876
st ell 7846
the m</w> 7820
d es 7811
k l 7806
k ann</w> 7723
k on 7718
g er</w> 7644
en d</w> 7602
d ann</w> 7557
m er 7547
se hen</w> 7507
0 0</w> 7496
wa y</w> 7479
g o</w> 7464
se hr</w> 7448
mor e</w> 7436
se e</w> 7390
un i 7359
f t</w> 7342
ha d</w> 7320
wh ich</w> 7302
z ei 7294
b en 7290
som e 7290
ar t</w> 7277
g ra 7266
st e</w> 7219
k en</w> 7213
thin k</w> 7202
wir d</w> 7199
ge t</w> 7175
f u 7138
nu r</w> 7129
d ur 7093
l u 7063
o ther</w> 7060
ja hr 7033
m ö 7014
w ould</w> 6998
pro b 6937
u te</w> 6905
i l 6904
in e</w> 6857
gi bt</w> 6848
ou r 6795
g el 6767
ma l</w> 6766
w n</w> 6763
re ally</w> 6758
w ere</w> 6755
sch af 6750
wh o</w> 6724
w ä 6723
y our</w> 6722
th ei 6688
ih nen</w> 6676
t ri 6672
m ent</w> 6640
w o 6640
f o 6625
men schen</w> 6596
l an 6581
wi ll</w> 6579
th en</w> 6578
m ich</w> 6544
f ra 6531
s ein</w> 6528
v or</w> 6518
li ch 6503
e v 6497
üb er 6494
w ur 6485
' ve</w> 6463
d in 6458
thei r</w> 6454
h n 6453
g h</w> 6449
a tion</w> 6426
m on 6425
k t</w> 6406
i d</w> 6368
tz t</w> 6345
un ter 6344
t el 6333
m s</w> 6296
o d</w> 6283
wh ere</w> 6239
st u 6231
ti me</w> 6221
i r 6203
' m</w> 6149
vi el 6122
y s</w> 6115
er n</w> 6112
m in 6106
h at 6070
a m</w> 6064
or t</w> 6059
wor ld</w> 6051
t ei 6042
h er</w> 6040
sch e</w> 6031
som e</w> 5990
d y</w> 5969
et was</w> 5964
no ch</w> 5955
i g 5943
ac tu 5941
dies er</w> 5941
an der 5899
c t 5864
f e</w> 5859
h as</w> 5769
c t</w> 5762
hab e</w> 5734
er s</w> 5727
sch i 5694
actu ally</w> 5664
na ch</w> 5661
p h 5660
u m 5640
prob le 5629
ch ten</w> 5563
wir k 5560
z e 5526
ab le</w> 5519
k s</w> 5497
in to</w> 5447
be i</w> 5435
i s 5430
mi r</w> 5426
der n</w> 5414
te ch 5401
ä ch 5392
i de 5377
f ac 5370
t en 5355
c ould</w> 5355
d r 5349
da y</w> 5346
thin gs</w> 5335
tion s</w> 5330
m ar 5317
un der 5307
te t</w> 5284
s on 5244
sp e 5234
s ol 5233
wel t</w> 5214
d a</w> 5209
di d</w> 5195
s s</w> 5194
fi r 5180
mm er</w> 5162
t al 5161
g h 5150
g re 5135
ac k</w> 5133
al le</w> 5128
ye ars</w> 5125
ou gh</w> 5120
me hr</w> 5078
c al</w> 5049
f r 5031
th o 5027
le ben</w> 5026
s in 5019
di es</w> 5009
ti ve</w> 5003
w ür 4992
wel l</w> 4992
en ce</w> 4977
ö r 4975
ch an 4966
n o</w> 4961
h ei 4944
st or 4932
d ing</w> 4928
li chen</w> 4919
w ant</w> 4907
g te</w> 4896
k e 4875
d an 4867
ne u 4851
ne w</w> 4844
l ei 4824
ent s</w> 4798
l l 4797
o b 4779
ri ght</w> 4778
ha pp 4777
ch ti 4766
p r 4753
k eit</w> 4746
st r 4746
k in 4732
ma chen</w> 4729
un g 4723
ge b 4720
v es</w> 4718
n at 4710
li che</w> 4702
m eine</w> 4693
es t</w> 4684
gro ß 4678
si on</w> 4665
z e</w> 4657
t ter</w> 4651
h u 4613
ma ke</w> 4587
m ü 4572
ihr e</w> 4563
mi lli 4556
be en</w> 4555
kom men</w> 4552
z um</w> 4548
t ä 4547
sa id</w> 4545
f ä 4541
s er 4528
wei l</w> 4526
s c 4514
ch t 4504
t ro 4500
an i 4497
p as 4477
y ing</w> 4476
be g 4475
tz en</w> 4472
e m 4450
f un 4449
f en</w> 4439
f f</w> 4431
nu n</w> 4428
st ar 4426
h in 4423
t re 4408
ein es</w> 4403
com e</w> 4379
ff er 4375
n te</w> 4374
k ind</w> 4362
mo st</w> 4361
au en</w> 4353
ein fa 4343
some thing</w> 4343
wur de</w> 4342
ges ch 4337
dies es</w> 4334
wirk lich</w> 4334
c a</w> 4296
s k 4289
n e</w> 4283
dur ch</w> 4282
c u 4269
w er</w> 4257
l in 4242
s ch</w> 4204
h ä 4202
tt le</w> 4187
gl au 4187
es s 4186
v ing</w> 4180
p re 4154
f ol 4150
no lo 4147
s he</w> 4142
fir st</w> 4122
ü ck 4110
h l</w> 4095
t wo</w> 4085
e t</w> 4078
tech nolo 4075
th an</w> 4074
l as 4073
t ur 4070
z eit</w> 4064
lo ok</w> 4061
tho se</w> 4060
a d</w> 4057
go t</w> 4056
a d 4054
k en 4041
h men</w> 4032
el e 4026
li ttle</w> 4015
mu ch</w> 4007
on s</w> 4006
ar bei 4003
c re 3975
i mmer</w> 3973
tu n</w> 3965
h eit</w> 3950
ma cht</w> 3949
f re 3947
wor k</w> 3947
at er</w> 3929
in n 3927
ou s</w> 3926
di ffer 3915
wi ssen</w> 3911
at ed</w> 3909
b ack</w> 3893
w oll 3889
je tzt</w> 3883
la r</w> 3869
sa gen</w> 3853
com p 3852
g y</w> 3843
uns ere</w> 3836
m b 3828
b ra 3827
un d 3823
p ri 3813
0 00</w> 3813
f l 3802
vi el</w> 3797
i hr</w> 3781
ü n 3777
sa m 3748
st o 3746
na ch 3737
t ing</w> 3730
ri e 3729
sa y</w> 3698
pro du 3685
g es</w> 3672
hat te</w> 3670
i mp 3664
sel b 3640
s on</w> 3639
ol o 3632
k eine</w> 3623
ff en</w> 3620
k i 3617
in di 3613
t es</w> 3610
p la 3597
st em</w> 3589
o ver</w> 3588
k ed</w> 3586
t at 3581
gl ei 3580
d at 3570
stell en</w> 3568
li fe</w> 3561
viel e</w> 3561
f er 3558
wi e 3558
le ute</w> 3558
el t</w> 3550
on g</w> 3547
h is</w> 3546
me di 3546
o m</w> 3542
f an 3541
s si 3535
schaf t</w> 3535
z en</w> 3534
pl an 3524
d u</w> 3518
e ver 3515
al e</w> 3514
ar d</w> 3510
ol d</w> 3502
ges chi 3501
ac e</w> 3498
k o 3483
mö g 3482
st ru 3476
mi t 3473
c e 3465
proble m</w> 3450
lo o 3441
z we 3438
el l</w> 3435
c es</w> 3425
st er</w> 3422
on ly</w> 3411
bo dy</w> 3409
den n</w> 3406
a te</w> 3402
ä u 3386
b as 3381
b le</w> 3381
dies em</w> 3367
ta ke</w> 3365
l es</w> 3364
lo t</w> 3364
ev en</w> 3347
sa gte</w> 3343
p res 3341
sy stem</w> 3340
fü hr 3334
man y</w> 3324
ar o 3304
ever y 3304
n or 3301
s er</w> 3299
din ge</w> 3298
st and</w> 3287
des ig 3278
dies en</w> 3275
h and 3254
einfa ch</w> 3254
or t 3253
el n</w> 3245
b ein 3244
m es</w> 3243
ar i 3243
1 9 3241
ung s 3232
zwe i</w> 3228
e ar 3224
ne ed</w> 3211
a k 3208
war en</w> 3208
fu l</w> 3202
tion en</w> 3192
g ie</w> 3190
a ch</w> 3189
s ei 3188
g ing</w> 3187
wi s 3185
ein i 3183
all es</w> 3182
h el 3180
per i 3174
do es</w> 3166
an s</w> 3165
c ol 3164
bi l 3154
ch er</w> 3146
b in</w> 3140
mü ssen</w> 3139
ge hen</w> 3136
th r 3132
v el 3131
qu i 3126
co un 3117
go od</w> 3108
le t</w> 3103
or i 3100
s oll 3087
as e</w> 3086
en s</w> 3081
jahr en</w> 3080
v e 3072
aro und</w> 3070
ver su 3065
b li 3063
an y</w> 3045
an k</w> 3043
mer i 3042
ä r 3041
' ll</w> 3040
and ere</w> 3037
n t</w> 3031
do wn</w> 3026
v ol 3023
br in 3021
h ör 3020
en ti 3020
j o 3011
m ein</w> 3006
wei se</w> 2996
th re 2990
hl en</w> 2985
k r 2981
po li 2974
k an 2972
w s</w> 2964
d ed</w> 2957
ge ht</w> 2956
kom m 2952
schi e 2952
sa me</w> 2950
wh y</w> 2942
ge ben</w> 2941
ander en</w> 2940
ge w 2939
th ou 2934
wür de</w> 2924
da mit</w> 2916
d re 2914
l and</w> 2905
s ur 2903
den ken</w> 2895
tr y</w> 2892
t t</w> 2889
differ ent</w> 2888
le a 2887
ter i 2880
zu sam 2866
p s</w> 2864
ne hmen</w> 2855
st er 2853
spi el 2852
n ten</w> 2850
c ent</w> 2836
ei cht</w> 2835
2 0 2830
a meri 2824
fa hr 2822
wi ck 2820
e very</w> 2819
uns er 2819
de t</w> 2818
vi ell 2814
en de</w> 2812
t s 2809
st at 2809
viell eicht</w> 2809
st s</w> 2806
for ma 2801
s ci 2792
thr ough</w> 2790
c ul 2786
pu t</w> 2784
fin den</w> 2782
tr an 2778
b is</w> 2775
com pu 2775
c ar 2770
z a 2764
an t 2763
de u 2760
a ge</w> 2751
z ur 2748
zu r</w> 2747
c or 2746
on en</w> 2745
c tion</w> 2743
k un 2738
gu t</w> 2732
le tz 2724
w an 2718
br au 2714
c all 2712
ent wick 2712
an y 2710
si e 2701
hal ten</w> 2699
s ho 2698
st ra 2698
ste hen</w> 2697
selb st</w> 2697
a u</w> 2694
m ei 2691
u se</w> 2684
ü ck</w> 2681
v ed</w> 2677
ß en</w> 2672
el le</w> 2669
tä t</w> 2659
p er</w> 2653
en er 2652
ze u 2646
bein g</w> 2637
j a</w> 2629
in s</w> 2627
af ri 2627
do ing</w> 2626
b ar 2620
v en</w> 2604
pro je 2596
jahr e</w> 2596
o l</w> 2582
or gan 2581
mp le</w> 2578
si de</w> 2576
ar ti 2573
stor y</w> 2561
wa hr 2551
gr ö 2539
c ally</w> 2537
t te</w> 2529
ex peri 2527
las sen</w> 2521
wi chti 2520
fa mi 2519
tei l 2515
ti es</w> 2504
qu e 2502
pas si 2500
mb er</w> 2497
n er</w> 2476
tt ing</w> 2471
le ar 2464
1 0</w> 2457
sel f</w> 2457
ch e 2456
uni ver 2454
t ru 2451
he ute</w> 2451
b l 2450
w as 2440
äch lich</w> 2438
a m 2436
mu ss</w> 2434
i ma 2433
ell en</w> 2427
g ar</w> 2423
c s</w> 2414
a ga 2412
e u 2412
x t</w> 2408
call ed</w> 2407
in forma 2406
m om 2405
spi el</w> 2405
s or 2401
e f 2397
thre e</w> 2397
sch on</w> 2395
e hen</w> 2390
m ein 2390
tion al</w> 2390
ar y</w> 2388
a p 2380
t ten</w> 2380
tat s 2363
ne t</w> 2362
sch o 2361
at ing</w> 2356
er te</w> 2352
wen i 2352
w in 2347
c ent 2346
n ing</w> 2338
' d</w> 2338
gen er 2336
so ci 2333
re d</w> 2332
wa ys</w> 2324
den en</w> 2323
ca me</w> 2311
d ung</w> 2308
mö chte</w> 2308
e ver</w> 2304
d ri 2304
com m 2302
t y 2298
el y</w> 2297
le ben 2296
eini ge</w> 2295
p t</w> 2294
z ä 2293
tei l</w> 2290
grö ß 2290
war um</w> 2288
i c</w> 2287
ma de</w> 2286
t ure</w> 2284
per cent</w> 2274
pro z 2272
tats ächlich</w> 2259
ff e 2256
per son</w> 2255
ch in 2252
wie der</w> 2245
s h</w> 2237
s m 2231
i ts</w> 2227
geschi chte</w> 2226
bu il 2223
for m</w> 2213
to day</w> 2213
gre at</w> 2213
or s</w> 2206
n ed</w> 2205
t in 2202
sch a 2193
komm t</w> 2189
l er 2181
tel l</w> 2179
for e</w> 2165
hi r 2162
af ter</w> 2161
po in 2158
b ri 2156
ei gen 2153
ter n</w> 2148
ck en</w> 2148
k no 2145
ma ti 2142
bi g</w> 2142
er ung</w> 2140
da von</w> 2138
d ort</w> 2132
g keit</w> 2132
in i 2124
la st</w> 2120
tal k</w> 2113
ei g 2112
f ri 2108
en g 2106
gan z</w> 2104
do ch</w> 2093
be lie 2090
i m 2088
fac t</w> 2082
w al 2080
es en</w> 2080
ye ar</w> 2080
wis sen 2079
sch ein 2077
c our 2076
kin der</w> 2075
que sti 2075
bes ch 2071
e st 2067
re gi 2063
p e</w> 2062
r el 2062
gen au</w> 2054
hat ten</w> 2047
hn e</w> 2046
m ent 2045
imp ort 2045
ti mes</w> 2043
t ung</w> 2041
hal b</w> 2041
sh ould</w> 2035
nat ür 2034
i es</w> 2033
f ind</w> 2031
st an 2031
an other</w> 2030
h au 2029
s es</w> 2029
ver b 2026
chan ge</w> 2026
gen d 2025
k es</w> 2023
sp re 2022
th ank</w> 2021
fi l 2009
hu man</w> 2009
g lo 2007
ter s</w> 2006
dre i</w> 1999
mu si 1998
re ali 1995
men sch 1989
l än 1988
2 0</w> 1987
be deu 1987
ver än 1986
n en 1985
al en</w> 1983
5 0</w> 1969
wi th 1969
dur ch 1969
ber ei 1963
o b</w> 1962
wer de</w> 1962
i l</w> 1960
ar b 1956
dar über</w> 1954
lo w</w> 1953
au m</w> 1952
woll en</w> 1952
pa ar</w> 1948
ch ts</w> 1945
her aus 1943
n s</w> 1941
kön nte</w> 1940
be we 1937
ct ure</w> 1937
ih n</w> 1936
gi ve</w> 1935
l ö 1933
f all 1932
ide a</w> 1931
fun k 1931
z wei 1928
ex a 1925
brin gen</w> 1923
wä hr 1922
par t</w> 1920
w ent</w> 1919
o wn</w> 1914
ti vi 1907
ja hr</w> 1907
c rea 1905
un ter</w> 1904
be fore</w> 1900
di s 1895
thou ght</w> 1895
p un 1892
us ed</w> 1892
m einer</w> 1887
y si 1886
h ar 1886
c ts</w> 1884
k te</w> 1883
star ted</w> 1880
, 000</w> 1877
st and 1875
we g</w> 1873
s how</w> 1871
b lo 1869
i li 1866
c ri 1864
b it</w> 1862
v a 1860
lich keit</w> 1860
z wi 1858
s ed</w> 1857
sch u 1855
cour se</w> 1849
u tion</w> 1848
s eine</w> 1840
s hi 1840
ta g</w> 1839
f as 1837
st ri 1836
vi r 1833
p le 1832
d ru 1830
o ff</w> 1829
m als</w> 1828
aga in</w> 1828
k ei 1826
sie ht</w> 1822
h om 1820
l er</w> 1817
g ung</w> 1814
pu bli 1812
w ing</w> 1811
be t 1805
h ö 1801
pl ace</w> 1800
n ä 1794
st art</w> 1793
n is</w> 1787
ne ver</w> 1786
o ka 1784
k a</w> 1783
sti ll</w> 1783
l ar 1778
be tter</w> 1777
ihr en</w> 1777
wur den</w> 1777
poli ti 1777
t al</w> 1775
sch n 1771
k ur 1769
wh o 1769
mom ent</w> 1768
import ant</w> 1768
p en 1767
h ol 1767
p f 1764
m a</w> 1763
desig n</w> 1762
je der</w> 1761
ga b</w> 1757
a de</w> 1754
schaf t 1749
b ro 1747
stell t</w> 1744
er zä 1741
i t 1739
ir gend 1737
k er</w> 1731
o f 1731
c y</w> 1730
bei spiel</w> 1730
fra ge</w> 1727
den ke</w> 1724
ge mein 1722
om en</w> 1722
f lu 1721
oka y</w> 1721
happ en 1718
x i 1717
on der 1714
währ end</w> 1714
c ted</w> 1712
ge macht</w> 1710
ne xt</w> 1705
to ge 1705
. .</w> 1702
viel en</w> 1702
e ach</w> 1701
toge ther</w> 1701
ant wor 1700
po si 1699
w ater</w> 1698
v o 1697
hi m</w> 1696
chi l 1696
l au 1695
pa ti 1693
g le</w> 1691
wä re</w> 1689
zwi schen</w> 1689
h and</w> 1688
a go</w> 1685
te l</w> 1685
arb eit</w> 1685
glo b 1683
e y</w> 1679
ra l</w> 1679
inter est 1678
st än 1676
wh i 1676
technolo gy</w> 1676
l and 1675
mi ght</w> 1673
zusam men 1673
f all</w> 1671
k ein</w> 1668
ti c</w> 1668
vi de 1667
sch ö 1663
da zu</w> 1663
ph ysi 1663
b ar</w> 1662
mu s 1660
ent lich</w> 1657
ka m</w> 1655
o h</w> 1654
son dern</w> 1654
glau be</w> 1654
sa che</w> 1650
z ed</w> 1649
. ..</w> 1644
tion i 1643
ge hir 1642
e i</w> 1636
par ti 1636
v om</w> 1635
unser er</w> 1634
bra in</w> 1633
natür lich</w> 1633
e - 1631
c an 1630
ti g</w> 1630
organ i 1629
ö ff 1628
at en</w> 1628
so gar</w> 1627
se con 1623
ci ty</w> 1622
compu ter</w> 1621
w us 1620
sch ei 1619
v en 1616
b a 1615
c ro 1614
wa ch 1613
an ge 1612
mi tt 1612
z er 1611
ma y 1607
comp le 1607
e p</w> 1606
ma teri 1606
wei ter</w> 1606
spe ci 1604
i r</w> 1603
poin t</w> 1603
l ong</w> 1594
me an</w> 1594
s se</w> 1593
ge fä 1590
zei gen</w> 1589
an k 1588
ch ar 1588
su b 1588
sti mm 1588
c ra 1583
li ght</w> 1581
p on 1580
n äch 1579
c lo 1579
h än 1579
pro gra 1579
d ol 1578
s ing</w> 1577
fe w</w> 1575
neu e</w> 1572
s at 1571
ein mal</w> 1571
uns er</w> 1571
g ten</w> 1570
de vel 1569
ri chti 1567
milli on</w> 1567
comm uni 1567
c ess</w> 1566
fo und</w> 1564
th er 1563
arbei ten</w> 1563
es sen</w> 1561
wei ß</w> 1561
loo king</w> 1561
o hne</w> 1558
s ort</w> 1554
sy ste 1554
ver schie 1551
ni chts</w> 1550
com es</w> 1550
l ine</w> 1548
d ro 1547
f t 1547
si g 1547
po ssi 1547
ger ade</w> 1547
we en</w> 1546
to o</w> 1546
l ess</w> 1544
bet ween</w> 1540
l le</w> 1539
c er 1539
ge gen 1539
in cre 1535
u ten</w> 1534
auf en</w> 1534
sp ra 1526
scho ol</w> 1525
ä d 1524
da für</w> 1519
n ie</w> 1518
m y 1517
ge d</w> 1507
ihr er</w> 1507
may be</w> 1504
a g 1503
d one</w> 1501
m al 1501
un den</w> 1501
v al 1497
ge fü 1496
wür den</w> 1496
chil dr 1496
k t 1494
childr en</w> 1494
ca tion</w> 1492
ch er 1489
olo gi 1489
informa tion</w> 1488
d ra 1487
c ed</w> 1486
lo ve</w> 1483
de ci 1477
p hi 1474
3 0</w> 1473
b al 1472
tu r</w> 1470
di re 1469
ch es</w> 1464
tel y</w> 1464
20 0 1463
f ar 1461
passi ert</w> 1461
a pp 1460
h in</w> 1457
zur ück</w> 1457
proz ent</w> 1457
kei ten</w> 1455
w a</w> 1454
spre chen</w> 1451
or en</w> 1448
as i 1448
exa mple</w> 1447
who le</w> 1447
er ste</w> 1445
d n 1443
u r</w> 1442
funk tioni 1441
ab ly</w> 1440
gr und</w> 1440
sei te</w> 1440
wel t 1432
p at 1431
kö r 1431
questi on</w> 1431
h y 1430
st re 1428
e ffe 1427
op p 1427
un de</w> 1426
ver stehen</w> 1425
mi s 1423
en den</w> 1421
sch er</w> 1415
wir t 1415
he al 1415
f al 1413
ken nen</w> 1413
sch ri 1412
li ve</w> 1410
dar an</w> 1408
c le 1407
bas i 1405
kon nte</w> 1404
h n</w> 1402
er sten</w> 1402
ste ht</w> 1401
c ou 1400
a h</w> 1399
au t</w> 1399
es si 1397
pr in 1397
p or 1396
r y</w> 1396
fra gen</w> 1395
wan ted</w> 1395
e mp 1394
bi ld</w> 1394
n er 1393
milli onen</w> 1393
ch o 1392
w at 1391
dat a</w> 1391
pr ä 1388
on i 1387
wo hl</w> 1386
k ü 1385
ab ili 1384
d - 1382
de l</w> 1381
under stand</w> 1379
e con 1378
in du 1378
re al</w> 1377
tran s 1377
c all</w> 1375
fac e</w> 1375
dat en</w> 1375
econ om 1373
er st</w> 1370
sel ves</w> 1370
f our</w> 1368
ß t</w> 1368
dol lar</w> 1368
k ti 1366
la tion</w> 1366
gan ze</w> 1366
for t 1358
li cht</w> 1357
vi e 1357
t an 1355
m einen</w> 1354
re as 1354
scha ffen</w> 1354
ma y</w> 1353
bi lli 1353
a way</w> 1352
sch la 1350
h under 1349
v oll 1349
ide e</w> 1345
g ru 1344
tr ying</w> 1343
sch auen</w> 1342
fa st</w> 1341
groß e</w> 1341
wor king</w> 1340
m and</w> 1339
au ß 1338
zi em 1338
et wa</w> 1336
letz ten</w> 1336
l on 1334
a ch 1333
v ö 1333
ben u 1333
d ab 1332
us ing</w> 1326
p ho 1325
s ha 1325
ti gen</w> 1325
be kommen</w> 1325
ck t</w> 1325
b or 1322
sa gt</w> 1321
b el 1320
. 000</w> 1317
tz e</w> 1314
gen om 1309
ges ehen</w> 1309
y es</w> 1305
b lu 1305
al ways</w> 1304
every thing</w> 1304
belie ve</w> 1304
w ri 1303
wel che</w> 1303
k re 1302
m ents</w> 1302
ou s 1302
soll te</w> 1300
d ent</w> 1298
w omen</w> 1298
mon ey</w> 1298
dab ei</w> 1298
g ab 1297
ro bo 1297
wei ter 1297
sch l 1296
o ff 1295
kön nten</w> 1295
ou t 1291
was ser</w> 1290
ziem lich</w> 1290
an der</w> 1286
z ing</w> 1283
c li 1282
verän der 1282
ima g 1281
devel op 1280
pun kt</w> 1279
k op 1278
m er</w> 1278
con ne 1277
fe el</w> 1275
k or 1272
ev ol 1271
ell s</w> 1270
po wer</w> 1270
an ce</w> 1269
com ing</w> 1269
k ar 1268
ac t</w> 1268
dan ke</w> 1265
1 00</w> 1263
gel d</w> 1263
fi ve</w> 1262
ki ds</w> 1261
soll ten</w> 1260
l ung</w> 1259
rea d</w> 1258
b ab 1256
el s</w> 1252
es i 1251
woll te</w> 1250
k ul 1249
sp ace</w> 1245
inter net</w> 1245
sp r 1244
mei sten</w> 1243
h op 1241
st ro 1240
m einem</w> 1238
fr auen</w> 1236
coun try</w> 1236
c ur 1235
fä hi 1235
in nen</w> 1234
wahr schein 1234
op er 1233
hl t</w> 1233
an g 1231
ä f 1229
p ra 1224
mo d 1224
er ten</w> 1223
c ke</w> 1222
tech ni 1221
de mo 1220
ob je 1220
f lo 1219
z ent 1219
s au 1218
pp e</w> 1218
sch ul 1217
la ge</w> 1217
secon d</w> 1215
as k</w> 1214
zei gt</w> 1213
je mand</w> 1212
ge l</w> 1211
e g 1210
to ok</w> 1206
ck s</w> 1205
te te</w> 1202
nu mber</w> 1202
e ten</w> 1200
ro om</w> 1200
ar e 1199
b au 1198
technolo gie</w> 1198
ein zi 1197
glau b 1197
hör en</w> 1197
wichti g</w> 1197
e h 1196
rel a 1196
ar chi 1194
k ra 1193
sch lie 1193
thin king</w> 1193
ur es</w> 1192
c lu 1191
bo ok</w> 1191
kl einen</w> 1190
l ed</w> 1189
d oll 1188
ver wen 1188
wä r 1188
ne e 1184
ein ander</w> 1183
v el</w> 1182
sp ä 1182
dar auf</w> 1181
k rie 1180
m ann</w> 1179
ch a 1179
fo od</w> 1175
hel p</w> 1175
hä l 1174
b auen</w> 1173
brau chen</w> 1173
pl at 1172
stu di 1172
hi l 1170
sen se</w> 1170
ver n 1169
inter ess 1169
fü n 1167
me ans</w> 1166
eig entlich</w> 1166
sch wi 1165
ge gen</w> 1165
d d 1164
zusam men</w> 1164
qui te</w> 1163
crea te</w> 1162
sa ge</w> 1159
technolo gi 1158
p op 1157
vi er</w> 1155
on es</w> 1154
lich er</w> 1154
er rei 1152
per son 1152
in no 1150
b er</w> 1149
fin i 1149
ener gy</w> 1148
weni ger</w> 1147
m m</w> 1146
ge tting</w> 1146
d ge</w> 1145
lo s</w> 1144
bes ser</w> 1143
f li 1142
se tzen</w> 1141
th s</w> 1140
sti tu 1140
or y</w> 1139
sch le 1139
fahr en</w> 1139
f rei 1138
so zi 1138
in g 1137
sti c</w> 1137
chin a</w> 1137
fan gen</w> 1135
en ough</w> 1134
sch rei 1129
ma king</w> 1129
wh e 1129
prob ably</w> 1128
men ge</w> 1125
an s 1124
vide o</w> 1124
ler nen</w> 1123
r aum</w> 1121
at es</w> 1121
s ure</w> 1119
a ma 1118
h ou 1118
c tive</w> 1117
er inn 1117
re li 1117
g ni 1116
gen u 1116
a b</w> 1115
ta ge</w> 1115
bes t</w> 1115
hal f</w> 1114
fr on 1114
sci ence</w> 1114
b ru 1113
mu l 1111
rea dy</w> 1110
sm all</w> 1110
wei t</w> 1109
pi e 1109
k u 1108
di g</w> 1107
gr ou 1107
in tel 1106
be come</w> 1106
groß en</w> 1106
war d</w> 1104
ne t 1103
l s</w> 1101
buil ding</w> 1100
bedeu tet</w> 1100
we e 1098
na h 1097
gr und 1097
t ly</w> 1094
b rea 1094
to p</w> 1094
con tro 1094
zur ück 1094
da chte</w> 1093
re m</w> 1092
p le</w> 1091
gan zen</w> 1089
p sy 1088
kl eine</w> 1088
le ft</w> 1087
r an 1086
le hr 1085
kom ple 1085
pla y</w> 1085
mu s</w> 1084
dan k</w> 1084
1 5</w> 1083
ta in</w> 1083
fu ture</w> 1083
c ti 1082
bu sin 1082
ges a 1080
i ce</w> 1079
n ess</w> 1079
be tra 1079
interest ing</w> 1078
si cher 1077
stu ff</w> 1077
r ück 1076
f el 1075
abili ty</w> 1075
y or 1074
col le 1074
u e</w> 1073
ff e</w> 1073
us s</w> 1073
fr ü 1073
ti eren</w> 1072
w under 1071
glau ben</w> 1071
hom e</w> 1071
doll ars</w> 1071
hör t</w> 1069
k ten</w> 1067
al t</w> 1067
gr ün 1067
pre t 1067
with out</w> 1067
si cht 1065
k il 1064
ex i 1064
ear th</w> 1063
happen ed</w> 1063
tal king</w> 1062
en en</w> 1061
au to 1060
ih m</w> 1060
spiel en</w> 1060
mo un 1059
ta tion</w> 1059
b s</w> 1058
gr ei 1058
indi vi 1057
mög lich</w> 1057
possi ble</w> 1057
ge st 1056
ent schei 1055
verb in 1055
c y 1054
sta d 1053
indivi du 1053
be au 1050
bo o 1049
soci al</w> 1049
ar ten</w> 1047
zi eren</w> 1047
versu chen</w> 1047
w ed</w> 1046
uns eren</w> 1046
z o 1045
se t</w> 1044
e du 1042
leben s 1041
j un 1040
tri es</w> 1040
l ab 1036
bi o 1036
wissen schaft 1036
afri ca</w> 1034
zei ch 1033
kun ft</w> 1032
v ation</w> 1028
ch s</w> 1028
f lie 1026
b ac 1022
m ed</w> 1021
k ün 1020
all en</w> 1020
b ü 1019
je des</w> 1019
c are</w> 1018
ih rem</w> 1018
fra u</w> 1018
d lich</w> 1017
er i 1017
al ten</w> 1017
go vern 1015
pl ac 1015
h an 1014
hu man 1014
ro ss</w> 1013
se en</w> 1012
c ess 1011
ni em 1011
glei ch 1011
any thing</w> 1011
pret ty</w> 1011
sol u 1009
stru k 1006
n ein</w> 1005
lan g</w> 1004
vir on 1004
sa ys</w> 1002
ges ell 1001
sa m</w> 1000
res pon 1000
n ung</w> 999
eu ro 999
gehir n</w> 999
d au 998
en viron 996
en e</w> 995
en ds</w> 994
den ti 993
beg inn 991
ous ly</w> 991
f le 990
1 0 990
an ti 990
führ t</w> 990
l ä 989
go es</w> 989
c er</w> 988
aus ge 985
sci enti 985
mo ve</w> 984
führ en</w> 984
in ve 983
je den</w> 983
p an 982
bu i 982
archi te 982
s eit</w> 981
t au 980
pro f 978
ali ty</w> 978
da ys</w> 977
basi cally</w> 977
si mple</w> 976
m än 974
t on</w> 973
si tu 973
reli gi 973
un glaub 972
sch ü 970
gesa gt</w> 970
gl ück 969
gefü hl</w> 969
ca p 968
g ri 967
proble ms</w> 967
bui ld</w> 967
ma the 966
su ch</w> 966
shi p</w> 966
mu tter</w> 965
th ers</w> 963
ra di 963
plan et</w> 963
k ol 962
bei m</w> 962
happ en</w> 962
fall s</w> 961
en ten</w> 960
nu tzen</w> 960
kl är 960
whi le</w> 960
s - 959
k einen</w> 958
ac ross</w> 958
fami li 957
t an</w> 956
c ase</w> 956
ver sch 955
hi gh</w> 955
t old</w> 954
wahrschein lich</w> 954
g al 952
w are</w> 952
c l 951
ß e</w> 950
st ü 950
he ad</w> 950
el se</w> 949
b ad</w> 948
ele c 948
proje ct</w> 947
fil m</w> 947
on ce</w> 946
kr ank 946
z el 945
yor k</w> 945
e ben 944
li ving</w> 944
be stimm 944
sa w</w> 944
pi cture</w> 943
b at 941
gu te</w> 941
li ves</w> 940
jo b</w> 940
ent de 939
hä tte</w> 938
wor ks</w> 937
ne h 936
b ur 935
mathe mati 934
er de</w> 933
imag ine</w> 933
ch mal</w> 932
c ar</w> 931
res ul 931
heal th</w> 931
th ough</w> 930
ha ving</w> 930
milli ar 930
coun tries</w> 930
schaf ten</w> 929
lan g 929
m ind</w> 928
re me 928
gan g</w> 928
lich es</w> 928
in dem</w> 926
min i 926
s and 925
fi g 925
res ear 925
spä ter</w> 923
pop u 923
to gra 922
öff ent 921
for sch 920
happ ens</w> 920
l ie</w> 919
in stitu 917
s ä 914
fün f</w> 914
t at</w> 913
t est</w> 912
w r 911
mo le 911
we gen</w> 911
per fe 910
za hl</w> 910
ma kes</w> 909
zu kunft</w> 909
h ard</w> 908
st en 908
na tional</w> 908
in e 907
si ty</w> 907
tra di 907
un gefä 906
par t 906
wie der 906
ment al</w> 906
u p 905
c le</w> 904
bi s 904
je de</w> 904
spe zi 904
her aus</w> 903
4 0</w> 902
un der</w> 902
ye t</w> 902
ex tre 901
teil en</w> 901
der s</w> 900
go o 900
dis co 900
busin ess</w> 900
gi r 899
zei t 899
b re 897
eigen en</w> 897
an zu 896
fi c</w> 896
proble me</w> 896
i denti 894
na me</w> 894
k er 893
stell ung</w> 893
ff t</w> 892
stad t</w> 891
l ater</w> 890
ges und 890
ungefä hr</w> 890
sa h</w> 889
hau p 889
lan ge</w> 888
w and 887
zi ert</w> 887
glei ch</w> 887
po wer 886
ger n</w> 886
glob al</w> 886
auß er 886
m men</w> 885
be wus 885
su pp 884
s our 883
every body</w> 882
tran sp 882
fami ly</w> 882
as ked</w> 881
bi r 879
che mi 879
bes onder 878
pr o</w> 878
s ou 877
weni g</w> 877
wor den</w> 876
experi ence</w> 876
re vol 874
at h</w> 874
br ei 874
b an 873
ri cht 873
z ation</w> 871
le gen</w> 871
u . 870
si cher</w> 869
genom men</w> 869
o s</w> 868
e mo 867
con tin 867
sch ni 866
hi gh 866
tur n</w> 866
funktioni ert</w> 865
in ed</w> 864
sch es</w> 864
cu lar</w> 863
ein zel 862
res t</w> 862
stu d 862
soci e 862
b lei 861
richti g</w> 861
se qu 860
gel e 859
ener gie</w> 859
in spi 858
f - 857
reas on</w> 857
kon nten</w> 856
ol s</w> 855
stat es</w> 855
schu le</w> 855
ver k 854
si x</w> 854
ein s</w> 852
k tion</w> 851
t ter 851
mm t</w> 851
h aus</w> 850
ele k 850
d ungen</w> 849
s ung</w> 849
hei ßt</w> 849
ge stellt</w> 848
yo ung</w> 848
v ari 847
sa ying</w> 847
ll en</w> 847
in side</w> 846
pro cess</w> 846
su per 846
no thing</w> 845
er weise</w> 843
h le</w> 842
sta te</w> 842
erzä hlen</w> 842
bi li 841
s einer</w> 840
al most</w> 840
lear n</w> 840
chi ld</w> 839
o ft</w> 838
hr en</w> 838
kon tro 837
with in</w> 837
p li 836
be zi 836
fa r</w> 836
lo s 835
op en</w> 835
ges e 835
billi on</w> 835
l ing</w> 834
ä l 834
bes s 834
ide as</w> 834
m me</w> 833
an al 833
lie be</w> 833
ch ter</w> 832
ger ä 832
mar ke 832
bo th</w> 831
schn ell</w> 831
o ver 830
incre di 830
k at 828
z ellen</w> 828
er fol 828
ger i 828
sin gle</w> 828
nat ure</w> 828
lan gu 827
sat z</w> 827
er klär 826
genu g</w> 826
k ani 824
bu ch</w> 823
s st</w> 822
re cht</w> 822
h or 820
k ri 819
t z</w> 819
ä hn 819
te am</w> 819
intel li 819
gu y</w> 818
whe ther</w> 818
w onder 817
di se 817
ma te</w> 817
fun den</w> 816
g ar 815
tz lich</w> 815
syste ms</w> 815
tr ei 814
c ing</w> 813
gen d</w> 813
all en 813
ma sch 812
reme mber</w> 811
s ü 810
s li 810
men s</w> 810
le vel</w> 809
hi story</w> 809
a k</w> 808
t - 808
our s</w> 807
c at 806
näch sten</w> 806
c ells</w> 805
f er</w> 804
br ing</w> 804
brau cht</w> 804
verschie den 804
al ready</w> 803
ander s</w> 803
mög lich 803
bis schen</w> 803
k li 801
t or</w> 801
ou ght</w> 801
sa tion</w> 801
m ing</w> 800
ma ch 800
ge ts</w> 800
mo ther</w> 800
hel fen</w> 800
ra te</w> 799
pp en</w> 799
loo ks</w> 799
wr ong</w> 799
ce p 798
d y 797
ke ep</w> 797
afri ka</w> 797
ex pe 796
beau ti 796
ges t</w> 795
ges am 795
tru e</w> 795
kör per</w> 795
th ir 794
ti ge</w> 794
di gi 793
gh ts</w> 791
all er</w> 790
beg ann</w> 790
des sen</w> 789
can cer</w> 789
materi al</w> 789
th i 787
gr en 786
in gs</w> 785
for t</w> 785
re den</w> 783
musi c</w> 782
ch ed</w> 781
unter schie 781
loo ked</w> 781
t aus 780
su c 780
unser em</w> 780
eu ch</w> 780
fin an 779
tra gen</w> 778
dar um</w> 778
l en</w> 777
de fini 777
si ve</w> 777
he ard</w> 776
gru ppe</w> 776
pie ce</w> 776
f la 775
hop e</w> 775
g lich</w> 774
ur y</w> 774
zeu g</w> 774
en ces</w> 773
ti v</w> 773
sh ed</w> 773
über all</w> 773
k rei 772
f te</w> 772
sch au 772
sh ar 771
0 s</w> 770
ni sse</w> 770
neu en</w> 770
m äd 769
om e 769
geb äu 769
si cht</w> 768
ges i 768
e ti 767
vi ce</w> 767
ell er</w> 767
in ing</w> 766
ri cht</w> 766
au di 765
be hand 765
le uten</w> 765
cle ar</w> 765
o t</w> 764
ma tter</w> 764
ge hört</w> 764
man chmal</w> 764
hou se</w> 764
es sen 763
se i</w> 763
ye ah</w> 763
t lich</w> 762
r en 762
j e</w> 762
ein fl 762
a tions</w> 761
ab solu 761
ch ing</w> 760
be kan 758
for der 757
ans wer</w> 757
si mp 756
sa chen</w> 756
glei chen</w> 756
ide en</w> 755
at e 754
se e 754
uni ted</w> 754
vi su 753
vie w</w> 753
beauti ful</w> 753
s um</w> 752
m ber 751
p lo 750
st ern</w> 750
mi dd 750
fl ä 750
proje kt</w> 750
c op 749
di men 749
mon ths</w> 749
communi ty</w> 749
e vi 748
grou p</w> 748
he u 747
of ten</w> 747
in gen</w> 746
ti l</w> 746
wer t</w> 746
eng li 746
n ei 745
w es 745
k ä 743
h und 743
be vor</w> 743
some one</w> 743
tivi ty</w> 743
off en 743
c al 742
olo gy</w> 742
buil t</w> 742
plan eten</w> 741
6 0</w> 740
as es</w> 739
se l</w> 739
go d</w> 739
entwick elt</w> 739
la te</w> 738
my self</w> 738
z un 737
li ter 737
tr ä 737
ct or</w> 737
f fi 736
milliar den</w> 736
pro te 735
gen au 735
tz ung</w> 735
ste ad</w> 735
inn er 734
publi c</w> 734
be ha 733
stat t</w> 732
t ö 731
tion s 731
lie gt</w> 731
t on 730
indi a</w> 730
t ere</w> 729
situ ation</w> 729
resear ch</w> 729
po ten 728
o ce 727
in stead</w> 727
sin ce</w> 727
nen nen</w> 727
b in 726
s einen</w> 726
k el</w> 725
some times</w> 725
un til</w> 724
ci r 724
ama zing</w> 724
sa gten</w> 723
ph one</w> 723
groß arti 723
c tions</w> 722
er fahr 722
cou ple</w> 722
ch allen 721
st ens</w> 720
at ely</w> 720
sp a 720
unter nehmen</w> 720
men te</w> 719
v ent 718
univer se</w> 718
some body</w> 716
dn a</w> 716
fron t</w> 716
plac es</w> 716
mi cro 714
fi el 714
wor ds</w> 714
us a</w> 713
ander es</w> 713
ma t 711
is su 711
hei ten</w> 711
vel y</w> 711
me ter</w> 710
speci es</w> 710
er n 709
or der</w> 709
re du 709
do m</w> 709
si ons</w> 708
schlie ß 708
d or 707
j en 707
gro und</w> 707
govern ment</w> 707
c r 706
j our 706
on - 706
ta king</w> 706
fin det</w> 706
kl as 706
sa mm 705
wo hn 705
d ich</w> 704
en z</w> 704
mäd chen</w> 704
f and</w> 703
des halb</w> 703
st ei 702
informa tionen</w> 702
2 5</w> 701
lli g</w> 701
ni ght</w> 700
we b 700
edu cation</w> 700
ma chte</w> 699
19 9 699
cul ture</w> 699
ti ert</w> 698
su chen</w> 698
ar gu 697
mo del</w> 697
hei ts 697
contro l</w> 697
st ück</w> 696
our selves</w> 696
schi ed</w> 696
nat ur</w> 696
midd le</w> 696
o ben</w> 695
g ei 695
ch tet</w> 695
sy m 695
deci ded</w> 695
p ac 694
er kennen</w> 694
r au 693
al le 693
ent ly</w> 693
ex ac 693
mar k 693
arbei tet</w> 693
1 2</w> 692
ni e 692
tei le</w> 692
bi g 691
he art</w> 691
gener ation</w> 691
h ause</w> 690
bo t 690
aus zu 690
besonder s</w> 690
b ly</w> 689
at or</w> 689
st ed</w> 688
s s 687
happ y</w> 687
sto p</w> 687
ka men</w> 686
wissen schaft</w> 686
of fi 686
o ber 685
en d 685
sch ä 685
a st</w> 684
te xt</w> 684
kin ds</w> 684
tur ns</w> 684
ap pro 684
wor d</w> 683
o c 682
ty p 682
b ür 680
langu age</w> 680
exac tly</w> 680
in st 679
wirt schaft</w> 679
g s 678
st ör 678
ent fer 678
sy n 678
k lar</w> 677
e ts</w> 676
u tes</w> 676
bil der</w> 676
stand ing</w> 676
ru n</w> 675
jahr hunder 675
y - 674
al lo 674
verän dern</w> 674
or e</w> 673
ge bi 673
pro vi 673
ö hn 672
na mens</w> 672
mus ste</w> 672
spra che</w> 672
ul ly</w> 671
za hlen</w> 671
revol ution</w> 670
fe hl 669
ti al</w> 668
ra ther</w> 668
min uten</w> 668
f rie 666
ci al</w> 666
comple tely</w> 666
f ur 665
fo c 665
stor ies</w> 665
interess an 665
berei ts</w> 664
verschieden e</w> 664
st elle</w> 663
the m 663
sto ff</w> 663
lar ge</w> 663
benu tzen</w> 663
errei chen</w> 663
v ater</w> 662
z t</w> 662
hä tten</w> 662
gesell schaft</w> 662
n an 661
g ol 661
mu st</w> 661
m lich</w> 660
ho ff 660
wo man</w> 660
tre ffen</w> 660
every one</w> 660
fami lie</w> 660
c ated</w> 659
zent r 659
ö n 658
socie ty</w> 658
s einem</w> 657
bes i 657
a ir 656
p ur 656
fe st 656
ali en</w> 656
comp any</w> 656
psy ch 656
antwor t</w> 655
mi c</w> 654
ne ws</w> 654
ho ch 654
ga me</w> 654
min utes</w> 654
or din 653
te mp 653
zi ehen</w> 653
it self</w> 653
ell ing</w> 652
happen ing</w> 652
m p</w> 651
ger ne</w> 651
dar in</w> 651
mer k 651
indi en</w> 651
sig n 651
na tion 650
beha vi 650
t ol 649
m el 649
op ti 649
tri e 649
er war 648
ef fi 648
k ro 647
re ch 647
ameri ca</w> 647
te ten</w> 646
experi ment</w> 646
kün st 646
8 0</w> 645
sh are</w> 645
si te</w> 644
se chs</w> 644
hr t</w> 644
so ft 644
stru cture</w> 644
stud ents</w> 642
th ro 641
gen i 641
ll t</w> 641
ce pt</w> 641
j ä 640
er le 639
be came</w> 639
ri chten</w> 639
vi ru 638
p rei 637
be ob 637
lo ts</w> 637
spiel e</w> 637
them selves</w> 637
a i 636
to m</w> 636
fl ü 636
ne tz 635
ani mals</w> 635
ti gt</w> 634
auf gab 634
irgend wie</w> 634
z es</w> 633
st äd 633
na hmen</w> 633
nat u 633
hu ge</w> 633
indu str 633
thir d</w> 633
m ale</w> 632
f än 632
ex ci 632
kop f</w> 632
a x 631
a ir</w> 630
o il</w> 630
co gni 630
mög lichkeit</w> 630
bil dung</w> 630
leben s</w> 630
bal d</w> 630
niem and</w> 630
t op 629
st an</w> 629
musi k</w> 629
in ten 628
gew öhn 628
was ser 628
environ ment</w> 628
gu ys</w> 627
he ar</w> 626
s m</w> 625
st ing</w> 625
in de 624
st es</w> 624
ver ed</w> 624
wer k 624
stu dy</w> 624
cre ated</w> 624
lear ned</w> 624
vö l 624
evol ution</w> 624
t ou 623
au gen</w> 623
ver l 623
me as 623
fri ends</w> 623
schwi eri 623
ct ing</w> 622
h ours</w> 621
no ti 621
te x 621
ne ur 620
ta in 620
war ds</w> 620
geb ra 620
cent ury</w> 620
n ü 619
ameri can</w> 619
inner halb</w> 619
t a</w> 618
b are</w> 618
ti ere</w> 618
tr au 618
a moun 617
gen an 617
is ch</w> 617
einzi ge</w> 617
d un 616
h inter 616
mi li 616
y ed</w> 614
h on 614
ha ps</w> 614
mi l 614
wor ked</w> 614
wh at 613
ali si 613
dru ck</w> 613
d el 612
en or 612
per haps</w> 612
mit tel</w> 612
eini gen</w> 612
län der</w> 612
flu g 612
elec tri 612
natu ral</w> 612
gen e</w> 611
geschi chten</w> 611
schrei ben</w> 611
popu lation</w> 611
al ong</w> 610
je dem</w> 610
be sten</w> 609
k new</w> 608
ex tra 608
parti cular</w> 608
dise ase</w> 608
z ini 607
st unden</w> 607
bewe gen</w> 607
struk tur</w> 607
auf ge 606
er geb 605
sol l</w> 605
selb st 605
fig ure</w> 605
se x 604
gen s</w> 604
pf lan 604
p h</w> 603
ver halten</w> 603
ort uni 603
ch r 602
inno vation</w> 602
mber s</w> 602
gen de</w> 601
so und</w> 601
eng ine 601
glei che</w> 600
mul ti 600
s al 599
0 ,000</w> 599
go tt</w> 599
den ce</w> 599
con si 599
des t</w> 599
opp ortuni 599
t able</w> 598
ar - 598
ge funden</w> 598
fi sh</w> 598
pa in 598
sch war 597
marke t</w> 597
un ds</w> 596
ar m</w> 596
me chan 596
s is</w> 595
li eren</w> 595
the or 595
bi ologi 595
s qu 594
en - 594
for d</w> 594
fan ta 594
are a</w> 594
gebäu de</w> 594
c in 593
bli ck</w> 593
brin gt</w> 593
entwick eln</w> 593
stan den</w> 593
wach sen</w> 593
cent er</w> 592
sand s</w> 592
ein g</w> 591
ber ü 591
schließ lich</w> 591
ab hän 590
geb aut</w> 590
gebra cht</w> 590
p ol 589
vor stellen</w> 588
tur ned</w> 588
flä che</w> 588
s and</w> 587
ob wohl</w> 587
olo gie</w> 587
ear ly</w> 587
regi erung</w> 587
ac tion</w> 586
din gs</w> 586
lea st</w> 586
ver ein 585
m es 583
bas ed</w> 583
g ungen</w> 582
mo ving</w> 582
ga ve</w> 582
gel n</w> 582
questi ons</w> 582
verschie denen</w> 582
bezi eh 581
in st</w> 580
p al 579
l esen</w> 579
1 8 579
bi tte</w> 579
con su 579
kör per 579
inter essi 578
ob vi 578
cu ri 578
mach ine</w> 578
er halten</w> 577
t or 576
än dern</w> 576
fin ally</w> 576
bei den</w> 576
di r</w> 575
aga inst</w> 575
sch t</w> 574
sc ale</w> 574
o x 573
sel f- 573
ct ures</w> 573
verwen den</w> 573
v an 572
er lau 572
dur ing</w> 572
möglich keiten</w> 572
c ell</w> 571
inve sti 571
t om 570
de ta 570
lear ning</w> 570
di ffi 569
sp o 569
te a 569
te m 569
pati enten</w> 569
mitt el 569
st au 568
at om 568
he a 568
woll ten</w> 568
bab y</w> 568
el tern</w> 567
än der 567
differ ence</w> 567
nä mlich</w> 567
posi tion</w> 567
diffi cul 567
kr an 566
o thers</w> 564
in stru 564
be h 564
be mer 564
je man 564
pa st</w> 564
kin dern</w> 564
kno wn</w> 564
out side</w> 564
sta un 563
sta ti 563
fan g</w> 563
h un 562
as y</w> 562
su d 562
fall en</w> 562
t wi 561
lo se</w> 561
ta ken</w> 561
pri v 561
zeu gen</w> 561
pho togra 561
lä sst</w> 561
d on 560
i eren</w> 560
2 00</w> 560
d ly</w> 559
5 00</w> 559
da mals</w> 559
stan ce</w> 559
se ven</w> 558
ck ed</w> 558
ke y</w> 558
e p 557
in vol 557
ex pla 557
man a 557
hau pt</w> 557
wonder ful</w> 557
re cor 556
for ce</w> 556
fe el 556
beg innen</w> 556
e ht</w> 555
ver sion</w> 555
bil d 555
thou sands</w> 555
oce an</w> 555
w esen</w> 554
sch wer</w> 554
ma s 554
sp ro 553
da her</w> 553
ho ch</w> 553
schri tt</w> 553
ma g 552
fa ther</w> 552
auf zu 552
i ty</w> 551
be d</w> 551
me hr 551
po sed</w> 551
il s</w> 551
y our 550
her um</w> 550
män ner</w> 550
e ch 549
l t</w> 549
pas sion</w> 549
unglaub lich</w> 549
l äu 548
fre e</w> 548
kre bs</w> 548
kra ft</w> 548
st är 547
ri ch 547
chan ce</w> 547
fol gen</w> 547
g än 546
ni mmt</w> 546
enti re</w> 546
goo gle</w> 546
m ous</w> 545
f en 545
b un 544
th y</w> 544
mensch lichen</w> 544
clo se</w> 544
ger s</w> 543
rela tion 543
s ön 542
wi ll 542
la p 542
ta kes</w> 542
stell te</w> 542
ti ven</w> 541
me tho 541
r at 540
or ig 540
sch li 540
mi kro 540
ste u 540
dan ken</w> 540
rie ben</w> 540
d rei 539
se eing</w> 539
te ach 539
unter stü 539
sin n</w> 539
ener gi 539
lö sung</w> 539
b lin 538
ro te</w> 538
tra g</w> 538
lea ve</w> 538
nee ds</w> 538
soft ware</w> 538
an g</w> 537
mer a</w> 537
schö n</w> 537
what ever</w> 537
c les</w> 536
at ure</w> 536
si on 536
wor t</w> 536
über haupt</w> 536
lö sen</w> 536
fähi gkeit</w> 536
p a</w> 535
pl an</w> 535
hl te</w> 535
entwick lung</w> 535
l aufen</w> 534
el ten</w> 534
ima ge</w> 534
richt ung</w> 534
your self</w> 534
d om 533
b om 533
st ä 533
di sa 533
stän dig</w> 533
hil fe</w> 533
e yes</w> 532
ter ms</w> 532
dr ück 532
sch we 531
de li 531
fun da 531
versu cht</w> 531
er staun 530
at ten 530
si l 530
ang st</w> 530
tz u 529
par ts</w> 529
sta aten</w> 529
medi a</w> 529
schein t</w> 529
e qu 528
c ei 528
au to</w> 528
univer sum</w> 528
pati ent</w> 528
h nen</w> 527
intelli gen 527
fü hlen</w> 526
kno w 526
i gen</w> 525
au ßen</w> 525
gen heit</w> 525
indu stri 525
beginn ing</w> 525
gl ück</w> 524
man i 524
gro ß</w> 524
pre di 524
wal k</w> 524
tem per 524
on line</w> 523
ma j 523
ver age</w> 523
per sön 523
län dern</w> 523
n a</w> 522
c en 522
f ly</w> 522
ar ly</w> 522
gi ven</w> 522
veränder t</w> 522
ti schen</w> 521
si ze</w> 521
e hr 520
ge tan</w> 520
be völ 520
for men</w> 520
en ga 519
me t</w> 519
gre en</w> 519
mod ell</w> 519
amoun t</w> 519
s .</w> 518
z war</w> 518
ver fü 518
zu stellen</w> 518
tu t</w> 518
chan ged</w> 518
letz te</w> 518
näch ste</w> 518
nor mal</w> 517
interest ed</w> 517
e her</w> 516
par a 516
l a</w> 515
ti sche</w> 515
ne y</w> 515
ck ing</w> 515
par ents</w> 515
gra phi 515
comp ani 515
abhän gi 515
a tionen</w> 514
al ter</w> 514
co st</w> 514
bl ack</w> 514
s wi 513
ameri kani 513
bewe gung</w> 513
cer tain</w> 513
b all</w> 512
her r 512
gro w</w> 512
str ate 512
äu me</w> 512
tivi tät</w> 512
g ent 511
z z 511
al ter 511
sp end</w> 511
pro t 511
audi ence</w> 511
e asy</w> 510
ri esi 510
le g 510
vi sion</w> 510
krie g</w> 510
t ent</w> 509
w est</w> 509
at t 509
ri s 509
komm uni 509
kur z</w> 509
tu al</w> 508
co ol</w> 508
ali tät</w> 508
rea m</w> 508
be din 507
hi m 507
r un 506
beh ind</w> 506
m t</w> 505
w ind</w> 505
w ann</w> 505
1 8</w> 505
ei ght</w> 505
hi er 505
vol l</w> 505
un ten</w> 504
bra chte</w> 504
qui ck 504
ster ben</w> 504
kul tur</w> 504
de al</w> 503
to s</w> 503
lei st 503
hin ter</w> 503
nach dem</w> 503
0 - 502
ver brei 502
gr unde</w> 502
stre et</w> 502
c las 501
vi li 501
bili ty</w> 501
fiel d</w> 501
an ge</w> 500
di en 500
bu y</w> 500
organ is 500
jun ge</w> 500
difficul t</w> 500
ur en</w> 499
res our 499
din gen</w> 499
ser i 499
g one</w> 498
z ü 498
ex per 498
alle m</w> 498
g keiten</w> 497
ein ge 497
beg an</w> 497
fer n 497
kun den</w> 497
mu ster</w> 496
fr an 496
mo der 495
con di 495
sta ge</w> 495
betra chten</w> 495
boo ks</w> 495
ze hn 494
pra cti 494
tre ten</w> 493
lab or</w> 493
h ri 492
f elt</w> 492
fe u 492
heraus forder 492
e li 491
de ath</w> 491
mu se 491
fort un 491
a chten</w> 490
neu ro 490
econom ic</w> 490
blu e</w> 490
st ers</w> 489
ex pl 489
all er 489
pp ed</w> 489
ve ment</w> 489
regi on</w> 489
k rea 488
ver stän 488
si ble</w> 488
per spe 488
con ver 488
ll ed</w> 488
mög lichen</w> 488
masch ine</w> 488
de te</w> 487
kun st</w> 487
bar en</w> 487
i cs</w> 486
fu ll</w> 486
sc re 486
lon ger</w> 486
wee k</w> 486
fan den</w> 485
fri end</w> 485
t end</w> 484
e pi 484
i se</w> 484
h old</w> 484
1 1</w> 484
vi l 484
ber i 484
nah m</w> 484
ti e 483
wei tere</w> 483
res pe 483
unter schied</w> 483
mensch liche</w> 483
kt or</w> 483
d on</w> 482
mö gen</w> 482
power ful</w> 482
stati sti 482
t ab 481
d ür 481
m eines</w> 481
comm on</w> 481
val ue</w> 481
sicht lich</w> 481
k um</w> 480
m ä 480
s it</w> 480
w u 480
den ten</w> 480
ca te</w> 480
tri ed</w> 480
mis sion</w> 480
po se</w> 479
hand s</w> 479
flie gen</w> 479
erfahr ung</w> 479
der en</w> 478
gi eren</w> 478
nee ded</w> 478
know le 478
hi g 477
wer k</w> 477
bo den</w> 477
gro w 477
ty pi 477
sou th</w> 477
anal y 477
simp ly</w> 477
wel ches</w> 476
wi der 475
re pres 475
ze p 475
bor n</w> 475
dy na 475
o p</w> 474
m ine</w> 474
h aus 474
in clu 474
pl ö 474
b on 473
ci ties</w> 473
üb ri 473
je doch</w> 473
sol che</w> 473
nah me</w> 473
k aufen</w> 472
l at 472
lo cal</w> 472
pro to 472
pa per</w> 472
ka pi 472
ko sten</w> 472
h en 471
0 .000</w> 471
ti cal</w> 471
sho ws</w> 471
cur r 471
bac k 471
o ze 470
d ou 470
g as</w> 470
an fang</w> 470
ti sch</w> 470
for ward</w> 470
res s</w> 470
proz ess</w> 470
mus sten</w> 470
sur vi 469
plat z</w> 469
interess ant</w> 469
ti s 468
me an 468
eigen e</w> 468
reali zed</w> 468
demo cra 468
n ers</w> 467
ei ther</w> 467
häl t</w> 467
gese tzt</w> 467
quick ly</w> 467
f ten</w> 466
w in</w> 466
ma g</w> 466
af gh 466
ste p</w> 466
lie ben</w> 466
kä mp 466
f ru 465
j ungen</w> 465
au th 465
ten s</w> 465
gesch a 465
wissenschaft ler</w> 465
genau so</w> 465
c lin 464
er ken 464
co de</w> 464
di a 463
le y</w> 463
me l</w> 463
we ch 463
cu t</w> 463
h ü 462
ein zu 462
fal sch</w> 462
lehr er</w> 462
u su 461
sp an 461
fe et</w> 461
sur face</w> 461
incredi ble</w> 461
kran ken 461
i schen</w> 460
y er</w> 460
in se 460
na hr 460
zi el</w> 460
ap pe 460
whi te</w> 460
dire kt</w> 460
forsch ung</w> 460
ti ef 459
si tting</w> 459
kon zent 459
erinn ern</w> 459
re cogni 458
ge wi 458
se x</w> 458
the ma</w> 458
ck er</w> 458
lan gen</w> 458
über ra 458
ty pe</w> 458
be ste</w> 457
mi les</w> 457
wo hl 457
compani es</w> 457
el te</w> 456
ste t</w> 456
wichti g 456
st ein</w> 455
at s</w> 455
sp ent</w> 455
fin e</w> 455
sur pri 455
ne u</w> 454
ho spi 454
min ute</w> 454
mar kt</w> 454
wirt schaft 454
g - 453
b ank</w> 453
j ob 453
di ver 453
be l</w> 453
bo x</w> 453
soll en</w> 453
wat ch</w> 453
human s</w> 453
gir l</w> 453
k ers</w> 452
e mer 452
li ed</w> 452
ter ri 452
wa hr</w> 452
na men</w> 452
et ing</w> 452
viru s</w> 452
grow th</w> 452
el li 451
sch re 451
gen den</w> 451
gen eti 451
me ta 451
bo ard</w> 451
he y</w> 451
ant ly</w> 451
jä hri 451
n y</w> 450
dan ach</w> 450
w ör 449
lo st</w> 449
we b</w> 449
str on 449
zeu ge</w> 449
blei ben</w> 449
ar ing</w> 448
le b 448
se ver 448
vi er 448
wei sen</w> 448
per for 448
fre u 448
auto s</w> 448
u. s.</w> 448
behavi or</w> 448
e d 447
st - 447
ti ally</w> 447
ha st</w> 447
fra gte</w> 447
berei ch</w> 447
exi sti 447
z en 446
es pe 446
mo v 446
sti mmen</w> 446
mi ssi 445
gi c</w> 445
ct ly</w> 445
gr ü 444
sel ben</w> 444
wo che</w> 444
publi kum</w> 444
ch ri 443
si eren</w> 443
bu ch 443
ye ar- 443
f ör 442
wi l 442
vi ol 442
su n</w> 442
sie ben</w> 442
zwei te</w> 442
verbin dung</w> 442
l ungs 441
lo ssen</w> 441
robo ter</w> 441
wär en</w> 441
b la 440
se a</w> 440
comple x</w> 440
b ist</w> 439
ro w</w> 439
des cri 439
plö tzlich</w> 439
v in 438
in te 438
sti e 438
pa y</w> 438
wri te</w> 438
technologi es</w> 438
c ru 437
ou gh 437
sp ar 437
gi ving</w> 437
po or</w> 437
fre unde</w> 437
größ te</w> 437
a da 436
w ü 436
de pres 436
we g 436
ben ö 436
reali ty</w> 436
char ac 436
job s</w> 436
k al 435
p oll 435
c la 435
ka mp 435
wee ks</w> 435
p ed</w> 434
ver wand 434
nor mal 434
econom y</w> 434
ge danken</w> 433
hi v</w> 433
mo sp 433
ta ges</w> 433
be steht</w> 432
ver antwor 432
mon ate</w> 432
fol lo 432
gesund heits 432
unterschie d 432
knowle dge</w> 432
gr and 431
gro wing</w> 431
19 8 431
b and</w> 430
vi d</w> 430
zu erst</w> 430
ci ally</w> 430
br ought</w> 430
wus ste</w> 430
zo gen</w> 430
e at</w> 429
i mm 429
f est</w> 429
in fra 429
re gu 429
ge geben</w> 429
ra tion</w> 429
ca pi 429
ani mal</w> 429
einfl us 429
opportuni ty</w> 429
se tz 428
wa i 428
mor ning</w> 428
sh ing</w> 428
posi tive</w> 428
feel ing</w> 428
a - 427
s lo 427
st in 427
gu ten</w> 427
gal ax 427
zu vor</w> 426
hal t</w> 426
chan ges</w> 426
person al</w> 426
kil ome 426
su p 425
bes u 425
geb ung</w> 425
kan er</w> 425
univer si 425
develop ed</w> 425
sex u 425
7 0</w> 424
ne w 424
ges sen</w> 424
ex plo 424
glück lich</w> 424
y e</w> 423
c aus 423
de ca 423
gel er 423
orig in 423
w ell 422
in vi 422
se he</w> 422
ni ce</w> 422
wo chen</w> 422
are as</w> 422
f ab 421
con sci 421
ger e 421
star ting</w> 421
pati ents</w> 421
scienti sts</w> 421
a tive</w> 420
a verage</w> 420
tu ral</w> 420
su g 420
fu n</w> 420
l es 419
w all</w> 419
th an 419
ch en 419
no t 419
la gen</w> 419
man che</w> 419
fra gt</w> 419
b es</w> 418
ander er</w> 418
any one</w> 418
univer sity</w> 418
progra m</w> 418
9 0</w> 417
at mosp 417
zu g</w> 417
dr außen</w> 417
im pro 417
politi cal</w> 417
zer stör 417
los op 417
t elling</w> 416
w rote</w> 416
wer fen</w> 416
ca mp 416
ti v 415
ver ur 415
her z 415
ber eit</w> 415
comp li 415
bel o 415
religi on</w> 415
theor ie</w> 415
m r 414
m ou 414
vi ces</w> 414
te sten</w> 414
is la 414
durch schni 414
wach sen 414
vö llig</w> 414
sour ce</w> 414
de m 413
ci ent</w> 413
hei m 413
ak teri 413
stat t 413
sub je 413
ag no 413
hund re 413
muse um</w> 413
z in</w> 412
se tzt</w> 412
qu e</w> 412
mö chten</w> 412
ze hn</w> 412
tur en</w> 412
cer tain 412
prin zi 412
entde ck 412
afgh ani 412
w ol 411
ru p 411
lu ft</w> 411
neu es</w> 411
sto ff 411
besch äf 411
phi losop 411
k o</w> 410
t nis</w> 410
l auf 410
w and</w> 410
ja p 410
technologi en</w> 410
as pe 409
il lu 409
medi ka 409
größ e</w> 409
s ent 408
ri ed</w> 408
the ory</w> 408
ma in</w> 407
lin ks</w> 407
colle ge</w> 407
liter ally</w> 407
r ä 406
er schaffen</w> 406
fi ed</w> 406
rie b</w> 406
ameri ka</w> 406
funktioni eren</w> 406
bot tom</w> 406
t ors</w> 405
ent u 405
gener al</w> 405
poten tial</w> 405
ma che</w> 404
aus sehen</w> 404
schaf ts 404
fo o 404
pla ying</w> 404
bevöl k 404
sor gen</w> 403
n ar 402
f ing</w> 402
we der</w> 402
dar aus</w> 402
va il 402
n on- 401
di gen</w> 401
wer s</w> 401
gr ess</w> 401
zei ge</w> 401
produ ce</w> 401
stimm t</w> 401
cli mate</w> 401
eg al</w> 401
la w</w> 400
com pe 400
ex pres 400
gew esen</w> 400
beginn t</w> 400
ordin ary</w> 400
k auf 399
a stro 399
er ungen</w> 399
ge wis 399
spe ak</w> 399
sam keit</w> 399
jour n 399
atten tion</w> 399
geler nt</w> 399
a chi 398
s le 398
s we 398
su sta 398
ihr es</w> 398
konzent ri 398
al one</w> 397
ge or 397
da vid</w> 397
gemein schaft</w> 397
sa l</w> 396
rei he</w> 396
heraus zu 396
kar te</w> 396
an wen 395
st rei 395
be wer 395
gi ves</w> 395
nor th</w> 395
unser es</w> 395
bewus st</w> 395
s an 394
la b</w> 394
ck et</w> 394
bei de</w> 394
sh ort</w> 394
em ents</w> 394
fre e 394
run ning</w> 394
an zahl</w> 393
challen ge</w> 393
aufgab e</w> 393
c ars</w> 392
en th 392
ma p</w> 392
ma ssi 392
to ols</w> 392
nu mbers</w> 392
br en 392
her vor 392
ber u 392
nach denken</w> 392
mit einander</w> 392
gew al 392
sicher heit</w> 392
bewus st 392
see ms</w> 392
k ali 391
c ine</w> 391
f ully</w> 391
al es</w> 391
re fle 391
no body</w> 391
for ni 391
mor gen</w> 391
kl eines</w> 391
compu ters</w> 391
passi eren</w> 391
techni k</w> 391
li mi 390
reali ze</w> 390
fel d</w> 390
erklär en</w> 390
m mi 389
an fangen</w> 389
ri si 389
si mi 389
stu denten</w> 389
is ra 389
under standing</w> 389
syste me</w> 389
disco vered</w> 389
absolu tely</w> 389
a cht</w> 388
es se</w> 388
di e 388
be kommt</w> 388
ver rück 388
de ep</w> 388
tri fft</w> 388
tat sache</w> 388
teil t</w> 388
resul t</w> 388
gerä t</w> 388
in en</w> 387
ac cess</w> 387
val u 387
haup t 387
a ffe 386
on nen</w> 386
ge worden</w> 386
sp en 386
compu ter 386
cent ly</w> 386
sha pe</w> 386
jahrhunder t</w> 386
h a</w> 385
sch mer 385
ver gan 385
mo vement</w> 385
br an 385
ima ges</w> 385
physi cal</w> 385
o sau 384
1 6</w> 384
in ess</w> 384
zi el 384
rei se</w> 384
chan ging</w> 384
inno va 384
bü cher</w> 384
contin u 384
hundre ds</w> 384
a vail 383
i ert</w> 383
an statt</w> 383
li k 383
di ed</w> 383
ver bess 383
hi stor 383
da cht</w> 383
ges pro 383
je mals</w> 382
fa il 382
genan nt</w> 382
i en</w> 381
men sch</w> 381
kl ein 381
tä ten</w> 381
schö n 381
verein ig 381
e qui 380
re cently</w> 380
cht s 380
gesch ä 380
niem als</w> 380
schwieri g</w> 380
p in 379
i sche</w> 379
c ans</w> 379
ca tions</w> 379
sen d</w> 379
fir ma</w> 379
schl ü 379
individu al</w> 379
g ingen</w> 378
di sk 378
na cht</w> 378
qu ality</w> 378
lie gen</w> 378
gir ls</w> 378
bevölk erung</w> 378
k la 377
k id</w> 377
m ars</w> 377
op en 377
den kt</w> 377
sti sch</w> 377
cre ating</w> 377
stra ße</w> 377
engli sh</w> 377
3 00</w> 376
in fe 376
sp richt</w> 376
mp les</w> 376
vor her 376
car b 376
blo od</w> 376
män n 376
foc us</w> 376
y p 375
c en</w> 375
s he 375
1 , 375
pa pi 375
wä l 375
any body</w> 375
bekan nt</w> 375
o - 374
y on 374
s mi 374
z er</w> 374
in n</w> 374
tr aum</w> 374
wo od</w> 374
0 ern</w> 373
ou d</w> 373
wa hl</w> 373
so on</w> 373
stu dent</w> 373
industr y</w> 373
obvi ously</w> 373
t ar 372
i ra 372
b an</w> 372
produ ct</w> 372
kr at 372
verwen det</w> 372
t un 371
m essen</w> 371
ti er</w> 371
ti ves</w> 371
di sc 371
be einflus 371
ver tr 371
pro fi 371
mo dern</w> 371
as sen</w> 370
kno ws</w> 370
hol en</w> 370
antwor ten</w> 370
gesi cht</w> 370
prei s</w> 370
i a</w> 369
l en 369
ver öffent 369
for ms</w> 369
dr .</w> 369
tat en</w> 369
chin ese</w> 369
materi als</w> 369
elek tri 369
digi tal</w> 369
ge zeigt</w> 368
fa vor 368
mor al</w> 368
ct ors</w> 368
milli ons</w> 368
größ ten</w> 368
develop ment</w> 368
k le 367
do w 367
all ein</w> 367
pp ing</w> 367
auf merk 367
unter su 367
kin der 367
develop ing</w> 367
t ary</w> 366
er ing</w> 366
di agno 366
me mor 366
bo y</w> 366
sel be</w> 366
gru ppen</w> 366
incredi bly</w> 366
relation ship</w> 366
r en</w> 365
sch en 365
sti mme</w> 365
son st</w> 365
versu che</w> 365
sho wed</w> 365
ple ase</w> 365
prof ess 365
ober fläche</w> 365
entfer nt</w> 365
h our</w> 364
me xi 364
mu t</w> 364
to wn</w> 364
tr a</w> 364
gre e</w> 364
nach zu 364
wahr heit</w> 364
schle cht</w> 364
maj or</w> 364
e ast</w> 363
in v 363
tal ked</w> 363
gesch äf 363
desig ned</w> 363
kli ma 363
afghani stan</w> 363
t ali 362
c el 362
te d 362
la den</w> 362
mo ved</w> 362
avail able</w> 362
a mon 361
ver s</w> 361
dar k</w> 361
vor stellung</w> 361
t le</w> 360
i cal</w> 360
m ess 360
ti n</w> 360
se em</w> 360
ter r 360
gu ess</w> 360
gan gen</w> 360
mer s</w> 360
um gebung</w> 360
sol ution</w> 360
wis h</w> 360
krank heit</w> 360
dimen sion 360
nei gh 360
curi ty</w> 360
m ung</w> 359
b ung</w> 359
ge führt</w> 359
si ert</w> 359
ho od</w> 359
kl einer</w> 359
fo to</w> 359
verb unden</w> 359
benu tzt</w> 359
k ür 358
p pe 358
ö l 358
sch rieb</w> 358
jo hn</w> 358
cl ass</w> 358
in tro 357
en te</w> 357
di stri 357
ma ss</w> 357
ro lle</w> 357
si onen</w> 357
dr in 357
lei cht</w> 357
medi cal</w> 357
desig ner</w> 357
gefä hr 357
dn ung</w> 357
conne cted</w> 357
häl fte</w> 357
net work</w> 357
n st</w> 356
ab or 356
zei ten</w> 356
son nen 356
richti ge</w> 356
lon don</w> 356
issu e</w> 356
gebi et</w> 356
jeman den</w> 356
e asi 355
s an</w> 355
li sten</w> 355
sch aut</w> 355
sel n</w> 355
tel ef 355
tre at 355
zeu gt</w> 355
tin y</w> 355
effe ct</w> 355
gesund heit</w> 355
espe cially</w> 355
ver ste 354
kom pli 354
beg in</w> 354
supp ort</w> 354
year- old</w> 354
a th 353
ne ga 353
sei ten</w> 353
wri ting</w> 353
erfol grei 353
lik ely</w> 353
n ungen</w> 352
as king</w> 352
ent ed</w> 352
tr in 352
ga mes</w> 352
taus ende</w> 352
offi ce</w> 352
m ely</w> 351
f y</w> 351
ma chten</w> 351
sa ve</w> 351
ni cht 351
pi ctures</w> 351
pr ü 351
fer ence</w> 351
sozi ale</w> 351
big ger</w> 351
al low</w> 350
on to</w> 350
de ad</w> 350
par k</w> 350
star k</w> 350
hin der 350
hä u 350
schre ck 350
sta tion</w> 349
gesch rieben</w> 349
mit te</w> 349
se curity</w> 348
fü r 348
wor th</w> 348
schul en</w> 348
pflan zen</w> 348
a du 347
ar ed</w> 347
ab o 347
din osau 347
schl uss</w> 347
resour ces</w> 347
gespro chen</w> 347
t ori 346
n as 346
g an</w> 346
li ved</w> 346
re stau 346
ma ß 346
ge kommen</w> 346
de te 346
de mon 346
zei tig</w> 346
ad van 346
bil den</w> 346
euro pe</w> 346
chr is</w> 346
s un 345
z elle</w> 345
es sion</w> 345
be comes</w> 345
zi mmer</w> 345
mein ung</w> 345
essi on 345
veränder ung</w> 345
errei cht</w> 345
ho ffe</w> 344
and a</w> 344
fin de</w> 344
ev entu 344
son ne</w> 344
sol ve</w> 344
geb oren</w> 344
col or</w> 344
oper ation</w> 344
expla in</w> 344
o d 343
de pen 343
se h 343
rea ding</w> 343
e c 342
ch ern</w> 342
at ur</w> 342
de vice</w> 342
fre und</w> 342
19 7 342
t ally</w> 341
r in 341
i g</w> 341
gen en</w> 341
com passion</w> 341
pu tting</w> 341
fin ger</w> 341
speci al</w> 341
reas ons</w> 341
perfe ct</w> 341
kontro lle</w> 341
interessi ert</w> 341
sch wer 340
kom me</w> 340
imp act</w> 340
incre as 340
suc cess 340
l un 339
ar ds</w> 339
re geln</w> 339
ur spr 339
wer te</w> 339
he ad 339
sy mp 339
sto od</w> 339
entwick lungs 339
g la 338
di g 338
ab zu 338
lo ss</w> 338
ac tive</w> 338
nat ur 338
komple x 338
kontro lli 338
städ te</w> 338
b rie 337
me et</w> 337
tra ining</w> 337
son g</w> 337
pres ent</w> 337
besch rei 337
scienti fic</w> 337
high - 337
web site</w> 337
p fen</w> 336
s mo 336
con stru 336
res i 336
bas is</w> 336
dru ck 336
han g</w> 336
offen sichtlich</w> 336
c o</w> 335
b akteri 335
an sehen</w> 335
di a</w> 335
be yon 335
ne cess 335
kl u 335
ll s</w> 335
einfa che</w> 335
hä re</w> 335
bedeu tung</w> 335
bac teri 335
ai ds</w> 335
beyon d</w> 335
e ur 334
z y 334
as h</w> 334
tr en 334
so fort</w> 334
fe ar</w> 334
br ü 334
hl en 334
happ iness</w> 334
sig ni 334
grou ps</w> 334
ro ad</w> 333
tri bu 333
is m</w> 333
str ong</w> 333
hä us 333
bewe gt</w> 333
gegen über</w> 333
be kam</w> 332
fi gu 332
hab t</w> 332
inter national</w> 332
bes ser 332
gra ph 332
grund le 332
mole kü 332
absolu t</w> 332
verl oren</w> 332
vereinig ten</w> 332
b all 331
b au</w> 331
s th 331
s ungen</w> 331
lo gi 331
me er 331
to wards</w> 331
us es</w> 331
vo ice</w> 331
c um 330
1 4</w> 330
au str 330
wa it</w> 330
da chten</w> 330
rea ch</w> 330
bezieh ung</w> 330
simi lar</w> 330
v al</w> 329
an a</w> 329
di sp 329
ter m</w> 329
te ach</w> 329
ex pen 329
stu die</w> 329
scho ols</w> 329
schlie ßen</w> 329
ähn lich</w> 329
s ent</w> 328
ti er 328
ro r</w> 328
ci ans</w> 328
do or</w> 328
fähi gkeiten</w> 328
komple tt</w> 328
heu tzu 328
invol ved</w> 328
heutzu tage</w> 328
o k 327
r än 327
e di 327
unter neh 327
ll ing</w> 327
kan nst</w> 327
dri ve</w> 327
fas zini 327
ing ly</w> 327
hund red</w> 327
s mus</w> 326
al g 326
lin ie</w> 326
bas ic</w> 326
cou ra 326
certain ly</w> 326
st opp 325
na tion</w> 325
sol ar</w> 325
tro tz 325
einzel ne</w> 325
favor i 325
1 5 324
z y</w> 324
wi es 324
sa hen</w> 324
ni geri 324
car e 324
issu es</w> 324
alter na 324
t ch</w> 323
d as 323
ac tivity</w> 323
den ly</w> 323
ul ti 323
hn ung</w> 323
geb ur 323
fre und 323
cul arly</w> 323
any way</w> 323
jen igen</w> 323
carb on</w> 323
m äch 322
g lichen</w> 322
de ten</w> 322
ig nor 322
ze pt</w> 322
parti cularly</w> 322
progra mm</w> 322
pra kti 322
brea k</w> 322
sud denly</w> 322
teach ers</w> 322
herausforder ung</w> 322
t ungen</w> 321
l ungen</w> 321
in tu 321
ge arbeitet</w> 321
le bt</w> 321
ru les</w> 321
qu a 321
gu e</w> 321
ori ty</w> 321
wal king</w> 321
fehl er</w> 321
trotz dem</w> 321
e ye</w> 320
u g 320
in vent 320
er wä 320
sel e 320
geschi eht</w> 320
ori th 320
prin ci 320
eben e</w> 320
inde ed</w> 320
normal erweise</w> 320
h it</w> 319
ö l</w> 319
ver mu 319
ta gen</w> 319
stell ten</w> 319
ph en 319
spe ed</w> 319
dan ce</w> 319
gesch w 319
gab en</w> 319
gesam te</w> 319
sym bo 319
verstän d 319
jap an</w> 319
t as 318
en ter 318
be finden</w> 318
pro mi 318
te m</w> 318
ca pe</w> 318
st ar</w> 317
to tal</w> 317
so unds</w> 317
mon th</w> 317
lei den 317
pas sen</w> 317
lin es</w> 317
wan del</w> 317
tru th</w> 317
ox y 317
herauszu finden</w> 317
signi fi 317
alg orith 317
n ine</w> 316
li st</w> 316
gu i 316
gra du 316
fo un 316
evi dence</w> 316
ris k</w> 316
sever al</w> 316
a de 315
p ort</w> 315
er end</w> 315
al er</w> 315
gel an 315
every where</w> 315
voll er</w> 315
robo t</w> 315
vil lage</w> 315
fab ri 315
c oll 314
ac k 314
fac e 314
nen nt</w> 314
spra ch</w> 314
prof ession 314
krank heiten</w> 314
erfol g</w> 314
p ing</w> 313
ung sk 313
läu ft</w> 313
übri gens</w> 313
v ac 312
li n</w> 312
or te</w> 312
or dnung</w> 312
au gen 312
nor m 312
län ger</w> 312
gleich zeitig</w> 312
verk auf 312
noti ce</w> 312
ergeb nis</w> 312
g as 311
li ert</w> 311
si tzen</w> 311
se ar 311
wor l 311
her um 311
fo togra 311
pat tern</w> 311
obje ct</w> 311
sym me 311
dyna mi 311
e thi 310
d ere</w> 310
h ung</w> 310
se cre 310
hal te</w> 310
star ts</w> 310
ess es</w> 310
größ er</w> 310
r as 309
d opp 309
h i</w> 309
f el</w> 309
st um</w> 309
ma il</w> 309
ge o 309
se par 309
fi re</w> 309
pa ge</w> 309
spi e 309
tro ffen</w> 309
ad d</w> 309
ty p</w> 309
r ein 308
g ent</w> 308
f ern</w> 308
ge ment</w> 308
deu t 308
wan ts</w> 308
nä hr 308
politi k</w> 308
wach stum</w> 308
mag ne 308
hospi tal</w> 308
durchschni tt 308
e ben</w> 307
g ton</w> 307
ver di 307
sta y</w> 307
hoff nung</w> 307
wies o</w> 307
d eine</w> 306
er kan 306
om en 306
bu d 306
ther e 306
welt weit</w> 306
intu i 306
sch ir 305
nu tz 305
euro pa</w> 305
y ers</w> 304
for e 304
mon aten</w> 304
ad di 304
peri od</w> 304
sho wing</w> 304
cho ice</w> 304
p au 303
h all 303
b ert</w> 303
z te</w> 303
ma ga 303
is h</w> 303
exa mples</w> 303
fas sen</w> 303
inspi ri 303
gren zen</w> 303
samm eln</w> 303
mes sage</w> 303
susta in 303
dow n 303
hi elt</w> 302
nu clear</w> 302
so bald</w> 302
proje cts</w> 302
wichti ge</w> 302
schn eller</w> 302
i re</w> 301
al te</w> 301
le - 301
we st 301
lie b 301
dar f</w> 301
sk y</w> 301
expl or 301
i ces</w> 300
m or</w> 300
li sten 300
pro per 300
fi sche</w> 300
bi ll</w> 300
sel l</w> 300
fä lle</w> 300
führ te</w> 300
ther ap 300
fur ther</w> 300
meas ure</w> 300
bewusst sein</w> 300
krat ie</w> 300
an schauen</w> 299
en ded</w> 299
ge dacht</w> 299
ver gessen</w> 299
at ors</w> 299
la un 299
pi ck</w> 299
fo ot</w> 299
gre at 299
cho o 299
e hmen</w> 298
c lear 298
er d 298
en cy</w> 298
wer ke</w> 298
jahr zehn 298
stor e</w> 298
groß er</w> 298
ser vice</w> 298
fol ge</w> 298
passi erte</w> 298
sm art</w> 298
mati c</w> 298
zentr um</w> 298
exci ting</w> 298
t ü 297
in flu 297
or d 297
be gan 297
ha b</w> 297
ter ie</w> 297
lie ß</w> 297
vor trag</w> 297
sk in</w> 297
mit gefühl</w> 297
19 6 297
wichti ger</w> 297
ffe e</w> 297
kur z 297
geschw indi 297
1 3</w> 296
ri ff</w> 296
to tally</w> 296
lang sam</w> 296
big gest</w> 296
fortun ately</w> 296
in a</w> 295
ge we 295
pe ace</w> 295
kl ei 295
win do 295
reali tät</w> 295
vir tu 295
digi tal 295
a i</w> 294
o w 294
sp ei 294
inter est</w> 294
sk i 294
sto ffe</w> 294
gew innen</w> 294
pun kte</w> 294
entschei dungen</w> 294
typ en</w> 294
beob achten</w> 294
aufmerk samkeit</w> 294
began nen</w> 294
k tive</w> 293
a ges</w> 293
c ali 293
to d</w> 293
vor her</w> 293
um welt 293
fol low</w> 293
fre qu 293
zer o</w> 293
prä sen 293
grei fen</w> 293
trei ben</w> 293
effi zi 293
eventu ally</w> 293
f res 292
x - 292
w on 292
z in 292
sti sche</w> 292
gra mm</w> 292
produ kt</w> 292
dat en 292
auß er</w> 292
sozi alen</w> 292
part ner</w> 292
squ are</w> 292
tea cher</w> 292
a gen 291
2 4</w> 291
sch einen</w> 291
zu min 291
fo ssi 291
kü mm 291
bestimm t</w> 291
extre mely</w> 291
u tion 290
v ul 290
w ander 290
un ge 290
or ten</w> 290
sa men</w> 290
gen des</w> 290
ck y</w> 290
con fli 290
gu tes</w> 290
et te</w> 290
ger y</w> 290
ber ech 290
mar k</w> 290
cul tural</w> 290
außer dem</w> 290
rich ard</w> 290
e ment</w> 289
th in</w> 289
li gh 289
ver standen</w> 289
ac coun 289
bu l 289
fi sch</w> 289
den k 289
mor ali 289
wirk ungen</w> 289
gre w</w> 289
essen tially</w> 289
schlü s 289
4 00</w> 288
at ures</w> 288
pro cess 288
da durch</w> 288
na med</w> 288
to - 288
sel t 288
pl ant</w> 288
fer ti 288
ven tion</w> 288
devel op</w> 288
amon g</w> 288
r ing</w> 287
st ars</w> 287
op s</w> 287
plan e</w> 287
gemein sam</w> 287
bestimm ten</w> 287
scre en</w> 287
le ad</w> 286
ca mera</w> 286
vor stell 286
sta at 286
sta mm 286
über leben</w> 286
hn t</w> 286
fir men</w> 286
olo gen</w> 286
ear li 286
organi zation</w> 286
democra cy</w> 286
i ly</w> 285
st ol 285
ri se</w> 285
wo w</w> 285
groß es</w> 285
emp lo 285
defini tion</w> 285
k el 284
w ün 284
ma chin 284
be dro 284
arbei tete</w> 284
pla sti 284
kun st 284
lar gest</w> 284
zeich net</w> 284
spa ß</w> 284
jour ney</w> 284
profess or</w> 284
er wachsen 283
wer t 283
man u 283
rei ch</w> 283
ob ser 283
produ zieren</w> 283
thou sand</w> 283
sho t</w> 283
im medi 283
wus sten</w> 283
einzel nen</w> 283
änder t</w> 283
drück en</w> 283
usu ally</w> 283
ol der</w> 282
tä u 282
spra chen</w> 282
intel le 282
blei bt</w> 282
kommuni ka 282
zumin dest</w> 282
an ts</w> 281
re ci 281
as su 281
com par 281
zi er 281
bei spiele</w> 281
medi cine</w> 281
versu chte</w> 281
buil dings</w> 281
poin ts</w> 281
zwei ten</w> 281
richti gen</w> 281
bab ies</w> 281
sequ en 281
künst ler</w> 281
intro du 281
y a</w> 280
j an 280
wi de</w> 280
ver lieren</w> 280
sp ac 280
dies el 280
bi le</w> 280
co 2</w> 280
co ver</w> 280
gesch ehen</w> 280
produ cts</w> 280
har v 280
appro ach</w> 280
interessan te</w> 280
r ich</w> 279
y ou 279
c au 279
1 . 279
st ly</w> 279
da d</w> 279
da tion</w> 279
ex cept</w> 279
arbei ts 279
plan ts</w> 279
was hin 279
wat ching</w> 279
contin ue</w> 279
suc cess</w> 279
visu al</w> 279
klas se</w> 279
m är 278
in geni 278
ra y</w> 278
bi ology</w> 278
po ver 278
is land</w> 278
tre es</w> 278
vel s</w> 278
einfl uss</w> 278
en gl 277
tu be</w> 277
gr ab 277
auf re 277
kl ein</w> 277
some how</w> 277
um welt</w> 277
tre e</w> 277
progra mmi 277
stro m</w> 277
mod els</w> 277
leg al</w> 277
ö kon 276
an gel 276
ti vely</w> 276
sa fe</w> 276
sa tionen</w> 276
ne te</w> 276
fa ir 276
br auch</w> 276
some where</w> 276
ir an</w> 276
dan ger 276
fä llt</w> 276
ef ully</w> 276
pie ces</w> 276
bess ere</w> 276
electri city</w> 276
mov ie</w> 276
prinzi p</w> 276
ver lassen</w> 275
ben e 275
jo y</w> 275
sor ts</w> 275
im possible</w> 275
shi ps</w> 275
demo kratie</w> 275
f ein 274
f low</w> 274
li ste</w> 274
on e- 274
sp read</w> 274
ser ies</w> 274
thr ough 274
lar ger</w> 274
schla gen</w> 274
spezi es</w> 274
u se 273
el ess</w> 273
te u 273
su e</w> 273
ci es</w> 273
qu o 273
kon ta 273
gra d</w> 273
nach hal 273
medi en</w> 273
parti ci 273
cra zy</w> 273
prä si 273
zeich nen</w> 273
distri bu 273
washin gton</w> 273
a stron 272
st ant</w> 272
li es</w> 272
re por 272
ab ge 272
ge gangen</w> 272
inter nation 272
gew alt</w> 272
expe ct</w> 272
metho de</w> 272
hig her</w> 272
w - 271
si chti 271
schi cken</w> 271
cht ung</w> 271
sk il 271
nach richten</w> 271
hau t</w> 271
resul ts</w> 271
extra ordinary</w> 271
amerikani schen</w> 271
sup posed</w> 271
verbess ern</w> 271
p es</w> 270
h ur 270
in s 270
li ber 270
sch ung</w> 270
se kunden</w> 270
ne ben 270
mo m</w> 270
do ctor</w> 270
kö ni 270
inter vie 270
zei chen</w> 270
ad d 270
ak tivi 270
kr äf 270
person en</w> 270
elec tr 270
tradi tion 270
erlau bt</w> 270
gewi cht</w> 270
a st 269
n ö 269
l auf</w> 269
c ell 269
b b 269
ch st</w> 269
at tra 269
war ten</w> 269
sh u 269
medi zin</w> 269
mit g 269
äu men</w> 269
ari ly</w> 269
win zi 269
far be</w> 269
kul tur 269
tol l</w> 269
massi ve</w> 269
nachzu denken</w> 269
n on 268
y le</w> 268
f our 268
b ö 268
ti ger</w> 268
ho le</w> 268
aus sieht</w> 268
vol le</w> 268
nen ne</w> 268
erzä hlt</w> 268
irgend wo</w> 268
studi en</w> 268
gei st</w> 268
typ es</w> 268
allo wed</w> 268
opti mi 268
priv ate</w> 268
bun ch</w> 268
funda mental</w> 268
seri ous</w> 268
coll abor 268
b ele 267
ar ab 267
lo k 267
sp er 267
sti g</w> 267
and s</w> 267
qu ar 267
rei ch 267
arbei ter</w> 267
vide os</w> 267
sat elli 267
schl ä 267
entde cken</w> 267
b s 266
er zeugen</w> 266
al o 266
re chte</w> 266
sch w 266
ver sor 266
ra is 266
te en 266
zu gang</w> 266
ci an</w> 266
pu l 266
sho wn</w> 266
crea tive</w> 266
schö ne</w> 266
tou ch</w> 266
die jenigen</w> 266
phen omen 266
pover ty</w> 266
m i</w> 265
4 5</w> 265
un abhängi 265
per s</w> 265
inter pre 265
kon zept</w> 265
tel e 265
fre i</w> 265
äu ß 265
schie den</w> 265
arti kel</w> 265
obje cts</w> 265
individu als</w> 265
up on</w> 265
condi tions</w> 265
in gt</w> 264
er - 264
er mög 264
al ing</w> 264
re cei 264
di ge</w> 264
for med</w> 264
so li 264
par ty</w> 264
hör te</w> 264
face book</w> 264
t tern</w> 263
er hö 263
go al</w> 263
zu stand</w> 263
ck te</w> 263
ci ti 263
her stellen</w> 263
wä hlen</w> 263
ig es</w> 263
nach richt</w> 263
hand elt</w> 263
afri can</w> 263
organi sation</w> 263
mal ari 263
kti v</w> 263
elek tr 263
trie ben</w> 263
k ab 262
0 er</w> 262
en dlich</w> 262
ho t</w> 262
kon fli 262
fol gt</w> 262
ameri kaner</w> 262
dru g</w> 262
mitt eln</w> 262
hunder t</w> 262
wri tten</w> 262
kor e 262
frü her</w> 262
fanta stic</w> 262
abo ve</w> 262
expen sive</w> 262
favori te</w> 262
m c 261
1 7</w> 261
re chts</w> 261
fa ster</w> 261
mon at</w> 261
secon ds</w> 261
pat ter 261
großarti ge</w> 261
there fore</w> 261
e k</w> 260
m b</w> 260
1 .</w> 260
in come</w> 260
ar zt</w> 260
wi fe</w> 260
ro man 260
wor te</w> 260
zu fä 260
tr ou 260
res sour 260
sh er</w> 260
sin ne</w> 260
ke hr 260
bra ins</w> 260
dre ht</w> 260
tran si 260
kil led</w> 260
tau ght</w> 260
tradi tional</w> 260
exci ted</w> 260
vertr auen</w> 260
o li 259
t ells</w> 259
c as 259
de ter 259
ne ben</w> 259
go s</w> 259
fa mous</w> 259
ex p 259
con tent</w> 259
mü s 259
arbei t 259
stra tion</w> 259
tru st</w> 259
grün de</w> 259
transp ar 259
mean ing</w> 259
r aten</w> 258
ge h 258
so hn</w> 258
res er 258
auf grund</w> 258
min ds</w> 258
wirk lichkeit</w> 258
fac es</w> 258
medi zini 258
pres i 258
hand eln</w> 258
lea ders</w> 258
dor f</w> 258
compli cated</w> 258
vergan genheit</w> 258
geschwindi gkeit</w> 258
t v</w> 257
st ab 257
ti k</w> 257
wi se</w> 257
ges prä 257
ko hlen 257
schla g</w> 257
ran ge</w> 257
schü ler</w> 257
rup tion</w> 257
compe ti 257
d ream</w> 256
sch te</w> 256
ab stra 256
the ater</w> 256
ci vili 256
sk el 256
nie dri 256
treat ment</w> 256
r ou 255
e th 255
e tic</w> 255
re d 255
re mark 255
sel y</w> 255
ul p 255
tel es 255
stu dies</w> 255
nach bar 255
produ ction</w> 255
scha ff 255
rel ev 255
mensch heit</w> 255
dru gs</w> 255
ologi cal</w> 255
cy cle</w> 255
famili es</w> 255
stei gen</w> 255
industr ie</w> 255
kämp fen</w> 255
perfor man 255
h m 254
ti cs</w> 254
mus li 254
mathemati k</w> 254
perspe ctive</w> 254
origin al</w> 254
free dom</w> 254
papi er</w> 254
f ul 253
in es</w> 253
er fin 253
ti gkeit</w> 253
wi lli 253
gen es</w> 253
wor se</w> 253
con vin 253
all ge 253
so wohl</w> 253
gel ö 253
gh ter</w> 253
ki ll</w> 253
communi ties</w> 253
sign al</w> 253
al - 252
re de</w> 252
as soci 252
bu s</w> 252
me er</w> 252
bi eten</w> 252
to ol</w> 252
ali ve</w> 252
ali zed</w> 252
pre ci 252
heal thy</w> 252
archite cture</w> 252
famili en</w> 252
cep tion</w> 252
das selbe</w> 252
l ü 251
f lei 251
2 000</w> 251
ent weder</w> 251
me ant</w> 251
nu mmer</w> 251
ju sti 251
kon fer 251
bl ind</w> 251
win den</w> 251
cent ral</w> 251
cri sis</w> 251
land s</w> 251
hy po 251
frei heit</w> 251
transp or 251
photogra ph 251
universi tät</w> 251
not wen 251
d rea 250
i ge</w> 250
z on 250
er ende</w> 250
be dür 250
he li 250
fin ding</w> 250
kon tin 250
za hl 250
materi alien</w> 250
bacteri a</w> 250
p ä 249
h um 249
st unde</w> 249
om s</w> 249
ri es</w> 249
mp an 249
inter esse</w> 249
lich t 249
hin aus</w> 249
pri ce</w> 249
thre e- 249
stand ard</w> 249
grün den</w> 249
mili tary</w> 249
mä ß 249
success ful</w> 249
c ele 248
g ü 248
de st 248
we stern</w> 248
pa in</w> 248
lich erweise</w> 248
ph än 248
is mus</w> 248
versu ch</w> 248
conne ct</w> 248
psy chi 248
respon se</w> 248
mini ster</w> 248
verständ nis</w> 248
engl and</w> 248
k ern</w> 247
r ele 247
f ei 247
ver ti 247
te x</w> 247
bi e 247
su che</w> 247
con text</w> 247
wel cher</w> 247
chi r 247
ke pt</w> 247
pas st</w> 247
arbei te</w> 247
bil det</w> 247
tru ly</w> 247
öff nen</w> 247
engine ering</w> 247
dom in 247
c ases</w> 246
s low</w> 246
z ens</w> 246
un möglich</w> 246
st on</w> 246
ma sse</w> 246
ro le</w> 246
da te</w> 246
do g</w> 246
qu ali 246
qu alität</w> 246
produ kte</w> 246
sm aller</w> 246
trä gt</w> 246
frie den</w> 246
him self</w> 246
k tur</w> 245
a da</w> 245
o sten</w> 245
1 2 245
di vi 245
le u 245
ac y</w> 245
wa ste</w> 245
ta te</w> 245
pe dia</w> 245
tal ks</w> 245
gh tly</w> 245
hei t 245
lei sten</w> 245
imag in 245
eben so</w> 245
behand lung</w> 245
zun ehmen</w> 245
stie g</w> 245
kilome ter</w> 245
geschä ft</w> 245
urspr ün 245
clear ly</w> 245
r a</w> 244
l ern</w> 244
u ms</w> 244
3 5</w> 244
ch ung</w> 244
al though</w> 244
re qui 244
wor fen</w> 244
et z</w> 244
pa ki 244
fl uss</w> 244
sei ts</w> 244
any where</w> 244
dri tte</w> 244
genom e</w> 244
verbin den</w> 244
bestimm te</w> 244
masch inen</w> 244
neur ons</w> 244
viol ence</w> 244
than ks</w> 244
choo se</w> 244
re pli 243
ri ghts</w> 243
le ge</w> 243
si mu 243
con cer 243
lie f</w> 243
spi elt</w> 243
gra de</w> 243
spe a 243
führ ung</w> 243
ster i 243
trans forma 243
l äch 242
er eig 242
ge fän 242
sp on 242
sol chen</w> 242
net z</w> 242
beau ty</w> 242
well - 242
through out</w> 242
k - 241
1 7 241
ge fragt</w> 241
ha ft</w> 241
fi sch 241
con cept</w> 241
af ter 241
gl ass</w> 241
lei der</w> 241
bein gs</w> 241
kt oren</w> 241
hy per 241
ergeb nisse</w> 241
him mel</w> 241
isra el</w> 241
l ess 240
wi ki 240
ge g 240
ent schieden</w> 240
we tt 240
üb en</w> 240
fa ir</w> 240
her z</w> 240
bes on 240
kl ini 240
actu al</w> 240
beg ei 240
hy dro 240
betra chtet</w> 240
richt ungen</w> 240
t wo 239
ter n 239
com b 239
sti ck</w> 239
ex tra</w> 239
inter ak 239
und ed</w> 239
nä her</w> 239
radi o</w> 239
riesi ge</w> 239
inclu ding</w> 239
recogni ze</w> 239
verur sa 239
patter ns</w> 239
j i 238
ab sol 238
se p 238
ni en</w> 238
me eting</w> 238
co o 238
tra f</w> 238
fä llen</w> 238
dre hen</w> 238
physi cs</w> 238
dn ess</w> 238
allo ws</w> 238
energi e 238
earli er</w> 238
machin es</w> 238
bedür f 238
chir ur 238
ar ch 237
ein stein</w> 237
ha f 237
wa gen</w> 237
go tten</w> 237
tu mor</w> 237
to i 237
bo dies</w> 237
he ben</w> 237
ph ones</w> 237
neu n</w> 237
beg inn</w> 237
bl ü 237
obje kt</w> 237
recor d</w> 237
erken n 237
wai ting</w> 237
signifi c 237
a w 236
r an</w> 236
m au 236
s ar 236
1 50</w> 236
ge heim 236
vi l</w> 236
ent lichen</w> 236
gra ph</w> 236
col lea 236
ameri cans</w> 236
za tions</w> 236
bri lli 236
incre ase</w> 236
graphi c</w> 236
beson dere</w> 236
a di 235
r aus</w> 235
e sti 235
e he 235
d i</w> 235
sch wan 235
be ein 235
ent re 235
na ja</w> 235
wei le</w> 235
tu de</w> 235
ber g</w> 235
gra vi 235
fer tig</w> 235
ak zep 235
mati sch</w> 235
ple as 235
hil ft</w> 235
bü hne</w> 235
entde ckt</w> 235
consi der</w> 235
oze an</w> 235
th ern</w> 234
be findet</w> 234
wh er 234
bi ologie</w> 234
for est</w> 234
con tra 234
pu ll</w> 234
hal ten 234
fo tos</w> 234
um zu 234
str y</w> 234
fre m 234
olo g 234
rel ated</w> 234
gesam ten</w> 234
curr ent</w> 234
ressour cen</w> 234
a ds</w> 233
p ass</w> 233
t ory</w> 233
ei s</w> 233
fi ght</w> 233
ho we 233
con tribu 233
co sts</w> 233
gre ater</w> 233
sc an 233
tre at</w> 233
ve hi 233
kun de</w> 233
lö sungen</w> 233
ag ri 233
entschei den</w> 233
außer halb</w> 233
zun äch 233
mili tä 233
geschäf ts 233
won der</w> 233
skil ls</w> 233
howe ver</w> 233
e ve</w> 232
e ure</w> 232
s la 232
v - 232
er stens</w> 232
ma th</w> 232
be haup 232
ver stand</w> 232
as se 232
ac cu 232
pro gress</w> 232
str ange</w> 232
hin zu 232
poli cy</w> 232
spiel er</w> 232
dire ction</w> 232
app li 232
famili ar</w> 232
argu ment</w> 232
leist ung</w> 232
sep te 232
zunäch st</w> 232
k aum</w> 231
n ur 231
g st</w> 231
b le 231
s y</w> 231
ver letz 231
ac ci 231
sp ru 231
for m 231
us - 231
hal tung</w> 231
des wegen</w> 231
zei gte</w> 231
unter schei 231
pr en 231
glob alen</w> 231
ous ness</w> 231
kat astro 231
deta ils</w> 231
listen ing</w> 231
g ly</w> 230
ges etz</w> 230
ka mera</w> 230
spe k 230
fr ank 230
dri ving</w> 230
chin esi 230
scha fft</w> 230
mensch en 230
land s 230
evol ution 230
solu tions</w> 230
gele genheit</w> 230
provi de</w> 230
two - 230
a den</w> 229
p y 229
b lich</w> 229
ar mut</w> 229
le gs</w> 229
ra ft</w> 229
la y</w> 229
la tions</w> 229
wei ght</w> 229
tra in</w> 229
fu el</w> 229
unter suchen</w> 229
fl ying</w> 229
stra ßen</w> 229
bri tan 229
ini ti 229
fas st</w> 229
kol legen</w> 229
nahr ung</w> 229
presi dent</w> 229
k einer</w> 228
k tionen</w> 228
c old</w> 228
z . 228
z ell 228
er o 228
ar men</w> 228
ri er</w> 228
sp here</w> 228
sti schen</w> 228
con du 228
är en</w> 228
teil ung</w> 228
cri tical</w> 228
fas cin 228
wirt schafts 228
sä tzlich</w> 228
extre m</w> 228
septe mber</w> 228
l y 227
9 9</w> 227
ma gic</w> 227
sp ür 227
mo di 227
na p 227
einfa chen</w> 227
schn ei 227
erzä hl 227
dra w</w> 227
schni tt</w> 227
ermög licht</w> 227
0 0 226
un fortunately</w> 226
al ist</w> 226
la g</w> 226
ex ist</w> 226
tra de</w> 226
str eng 226
sc ri 226
pres s</w> 226
heraus finden</w> 226
frü h 226
verk aufen</w> 226
sli de</w> 226
klas si 226
bür ger 226
intelligen ce</w> 226
invent ed</w> 226
n one</w> 225
s a</w> 225
s op 225
ar ri 225
be zug</w> 225
lo wer</w> 225
ent er</w> 225
fü hlt</w> 225
ru ssi 225
her zustellen</w> 225
rei chen</w> 225
gre en 225
ser vices</w> 225
any more</w> 225
prin t</w> 225
prote ct</w> 225
bezieh ungen</w> 225
ehr lich</w> 225
meer es 225
malari a</w> 225
e a 224
m ur 224
u hr</w> 224
6 00</w> 224
in si 224
re - 224
te sts</w> 224
fi ts</w> 224
ta tions</w> 224
ta ins</w> 224
spi tze</w> 224
kon su 224
ir s</w> 224
spe e 224
fun ction</w> 224
am a</w> 224
hän de</w> 224
flo or</w> 224
sequ ence</w> 224
bedin gungen</w> 224
gescha ffen</w> 224
diver sity</w> 224
a id</w> 223
e missi 223
d ein</w> 223
d lichen</w> 223
re chten</w> 223
mo bile</w> 223
tra vel</w> 223
ig keiten</w> 223
gesch lossen</w> 223
sur gery</w> 223
proje kte</w> 223
blo ck</w> 223
erzä hlte</w> 223
vide o 223
ba hn</w> 223
deci sions</w> 223
fal t</w> 223
cle an</w> 223
conver sation</w> 223
wichtig ste</w> 223
freu de</w> 223
bakteri en</w> 223
n - 222
h us 222
er a</w> 222
mi sta 222
tei li 222
sor ry</w> 222
wal ked</w> 222
stän de</w> 222
speci fic</w> 222
archite ktur</w> 222
inde pen 222
subje ct</w> 222
valu es</w> 222
performan ce</w> 222
c on</w> 221
g or 221
en des</w> 221
li fe 221
re gel 221
mo tor</w> 221
et c</w> 221
under stood</w> 221
pla stic</w> 221
letz tes</w> 221
cap ac 221
zeit punkt</w> 221
emo tional</w> 221
großarti g</w> 221
r ant</w> 220
s weise</w> 220
er fahren</w> 220
ar en</w> 220
ff er</w> 220
con ser 220
zi tät</w> 220
so ft</w> 220
fe ed</w> 220
us sion</w> 220
hel d</w> 220
human ity</w> 220
environ mental</w> 220
rau m 220
kamp f</w> 220
nicht - 220
immedi ately</w> 220
a ware</w> 219
ge troffen</w> 219
wor ten</w> 219
for th</w> 219
men ten</w> 219
gr as 219
lu ft 219
sin n 219
sc op 219
poli ce</w> 219
cro w 219
char les</w> 219
conne ction</w> 219
einzi gen</w> 219
schle chte</w> 219
eben falls</w> 219
außer gewöhn 219
disa ppe 219
temper ature</w> 219
foo t 219
t ungs 218
r und</w> 218
st un 218
ma ßen</w> 218
ri tu 218
ra ise</w> 218
bi sher</w> 218
mp tion</w> 218
aus wirkungen</w> 218
rea ktion</w> 218
ak tu 218
ori es</w> 218
effe ctive</w> 218
hunder te</w> 218
erinn ere</w> 218
elek tro 218
schä tzen</w> 218
s at</w> 217
s äu 217
ei l</w> 217
au ge</w> 217
ro ck</w> 217
ge he</w> 217
le t 217
si ch 217
da ma 217
ru le</w> 217
tt es</w> 217
sen sor 217
tel evi 217
las st</w> 217
che a 217
eigen schaften</w> 217
land es</w> 217
far ben</w> 217
benu tz 217
fähi g</w> 217
bre chen</w> 217
gerä te</w> 217
finan zi 217
teach ing</w> 217
kranken haus</w> 217
great est</w> 217
r ü 216
l ying</w> 216
y el 216
en der</w> 216
li ghts</w> 216
ab end</w> 216
ma in 216
be coming</w> 216
ver an 216
te ch</w> 216
men d 216
fu hr</w> 216
son s</w> 216
ler nte</w> 216
schwi er 216
unglaub liche</w> 216
vari ous</w> 216
oc cu 216
prot ein</w> 216
follo wing</w> 216
erfolgrei ch</w> 216
nas a</w> 216
g ste</w> 215
re tten</w> 215
le gi 215
ur ban</w> 215
der ed</w> 215
gen etic</w> 215
con t 215
bo ys</w> 215
tur es</w> 215
spre che</w> 215
gehir ns</w> 215
werk zeuge</w> 215
mehr ere</w> 215
depres sion</w> 215
danger ous</w> 215
m in</w> 214
f it</w> 214
er for 214
en coura 214
le gt</w> 214
da r</w> 214
com mer 214
for ces</w> 214
wirk ung</w> 214
gre es</w> 214
cht es</w> 214
mit ten</w> 214
stat us</w> 214
gehir n 214
organi sationen</w> 214
lab or 214
part ment</w> 214
beob ach 214
flug zeug</w> 214
practi ce</w> 214
chri st 214
foun dation</w> 214
schir m</w> 214
a mei 213
o ts</w> 213
b las 213
ma gi 213
me ters</w> 213
bi ts</w> 213
fin al</w> 213
mon d</w> 213
viel falt</w> 213
sc o</w> 213
hin ein</w> 213
bal ance</w> 213
inve st 213
institu tions</w> 213
unterschie de</w> 213
nigeri a</w> 213
remark able</w> 213
entre pren 213
k as</w> 212
as h 212
si bility</w> 212
co m</w> 212
vor zu 212
lei den</w> 212
produ ced</w> 212
führ er</w> 212
zwei tens</w> 212
funda ment 212
verrück t</w> 212
leiden schaft</w> 212
cali forni 212
a head</w> 211
r ely</w> 211
g liche</w> 211
z ine</w> 211
ch s 211
st one</w> 211
ar ts</w> 211
sch lu 211
le vels</w> 211
ne l</w> 211
for get</w> 211
ta r</w> 211
we sten</w> 211
tr um</w> 211
all s</w> 211
ste ckt</w> 211
pl us</w> 211
ger u 211
ct ro 211
lei d</w> 211
robo ts</w> 211
gesell schaften</w> 211
netz werk</w> 211
aufgab en</w> 211
enor mous</w> 211
use ful</w> 211
r s</w> 210
re ver 210
lo ved</w> 210
mi schen</w> 210
ne ar</w> 210
wei s</w> 210
we ge</w> 210
con clu 210
so dass</w> 210
tra ck</w> 210
gra fi 210
19 5 210
regi erungen</w> 210
schu tz</w> 210
schö nen</w> 210
neh me</w> 210
erwar ten</w> 210
ep ing</w> 210
unterschied liche</w> 210
deca de</w> 210
mr .</w> 210
alterna tive</w> 210
e co 209
m and 209
er neu 209
om e</w> 209
fi g</w> 209
gu es</w> 209
comple xi 209
tradi tion</w> 209
bir ds</w> 209
strate gi 209
a hnung</w> 208
g nis</w> 208
er fü 208
no te</w> 208
su ffer 208
mu sc 208
we ap 208
gra m</w> 208
afri kani 208
experi ments</w> 208
ange fangen</w> 208
char ak 208
pat h</w> 208
struk turen</w> 208
chemi cal</w> 208
shar ing</w> 208
temp or 208
jeman dem</w> 208
wichtig sten</w> 208
televi sion</w> 208
p fer 207
b äume</w> 207
v a</w> 207
j ün 207
ti sh</w> 207
zu sagen</w> 207
con ference</w> 207
wir ken</w> 207
fe sti 207
comple te</w> 207
dire ctly</w> 207
schri tte</w> 207
net works</w> 207
taus end</w> 207
geor ge</w> 207
schön heit</w> 207
restau rant</w> 207
z. b</w> 207
v y</w> 206
j er 206
in - 206
wei b 206
wo hin</w> 206
ev ent</w> 206
ess ed</w> 206
kei ts 206
öff net</w> 206
sig n</w> 206
kar ten</w> 206
cti vely</w> 206
disco ver</w> 206
verfü g 206
survi ve</w> 206
meta ph 206
statt dessen</w> 206
medika mente</w> 206
nega tive</w> 206
j ene</w> 205
er in</w> 205
sch wa 205
the tic</w> 205
ent ation</w> 205
ci sco</w> 205
ru fen</w> 205
zi vili 205
mög liche</w> 205
mom ent 205
mati cally</w> 205
hö ch 205
evol ved</w> 205
studi o</w> 205
marke ts</w> 205
kri se</w> 205
bin ation</w> 205
jahrhunder ts</w> 205
photogra ph</w> 205
clas si 205
bren n 205
harv ard</w> 205
r at</w> 204
n es</w> 204
s co 204
na he</w> 204
su mmer</w> 204
he at</w> 204
kom men 204
ko stet</w> 204
politi cs</w> 204
hän gt</w> 204
socie ties</w> 204
fän gt</w> 204
obvi ous</w> 204
konzentri eren</w> 204
sustain able</w> 204
teen a 204
californi a</w> 204
s eines</w> 203
7 5</w> 203
ver häl 203
mo stly</w> 203
wen den</w> 203
for mi 203
con ven 203
dar win</w> 203
sur ro 203
za hlt</w> 203
spre ch 203
possi bly</w> 203
boo t</w> 203
öffent lichen</w> 203
emo tion 203
finan cial</w> 203
behand eln</w> 203
heu tigen</w> 203
confli ct</w> 203
er leben</w> 202
er enden</w> 202
be u 202
de ep 202
gu ter</w> 202
ste cken</w> 202
pu sh</w> 202
tre mend 202
fol gendes</w> 202
who se</w> 202
kra ft 202
prof it</w> 202
bür o</w> 202
trie b</w> 202
l as</w> 201
in stance</w> 201
ge - 201
de stro 201
ra in</w> 201
mi x 201
gen der</w> 201
mo on</w> 201
we al 201
gan zes</w> 201
pa ir</w> 201
sen den</w> 201
ster o 201
bl au 201
fas hi 201
veränder ungen</w> 201
cha ir</w> 201
schü tzen</w> 201
anal o 201
intelli gent</w> 201
deta il</w> 201
tea ms</w> 201
instru ment</w> 201
gescha fft</w> 201
terri ble</w> 201
consci ousness</w> 201
terr or 201
bud get</w> 201
pau l</w> 201
tü r</w> 201
c ure</w> 200
di gung</w> 200
ge wä 200
de c 200
ac ting</w> 200
wa ffen</w> 200
ru hi 200
do ctors</w> 200
inn er</w> 200
produ ktion</w> 200
deci sion</w> 200
app ar 200
entschei dung</w> 200
trä ge</w> 200
nie der 200
frie den 200
foc used</w> 200
verantwor tung</w> 200
belo w</w> 200
spea king</w> 200
katastro p 200
k et 199
t ask</w> 199
5 ,000</w> 199
er er</w> 199
ein halb</w> 199
op tion</w> 199
fü gen</w> 199
wei te</w> 199
ell es</w> 199
tra g 199
vor aus 199
sen si 199
mer as</w> 199
indi an</w> 199
arti st</w> 199
glob ale</w> 199
app le</w> 199
schl us 199
mod elle</w> 199
sicher lich</w> 199
shar ed</w> 199
industri al</w> 199
tie f</w> 199
o ds</w> 198
h ori 198
ch ur 198
tri ck</w> 198
sol ar 198
ele ment</w> 198
comp on 198
cor por 198
größ ere</w> 198
physi k</w> 198
komple xi 198
govern ments</w> 198
cir cu 198
twi tter</w> 198
e te</w> 197
e ating</w> 197
b ought</w> 197
z au 197
er funden</w> 197
wi ld</w> 197
sch e 197
ver bringen</w> 197
at lan 197
ri ver</w> 197
we a 197
pa id</w> 197
pre par 197
ken s 197
pri vi 197
ko sten 197
stru g 197
ari ty</w> 197
hol t</w> 197
sau er 197
entschei den 197
biologi cal</w> 197
twi ce</w> 197
kür z 197
olog ist</w> 197
k n 196
d ün 196
c tion 196
di gt</w> 196
ri es 196
wor kers</w> 196
pe l</w> 196
ru f</w> 196
ga te</w> 196
sh el 196
fu ß 196
tro tz</w> 196
gesch ah</w> 196
brau chte</w> 196
deci de</w> 196
effe cts</w> 196
verbin dungen</w> 196
institu te</w> 196
flü ssi 196
charac ter</w> 196
austr ali 196
wiki pedia</w> 196
a ig 195
c .</w> 195
ä re</w> 195
ein kommen</w> 195
lo ch</w> 195
fe ed 195
her zen</w> 195
uni que</w> 195
ph ase</w> 195
cul es</w> 195
weni ge</w> 195
fran cisco</w> 195
existi ert</w> 195
konfer enz</w> 195
capac ity</w> 195
p her</w> 194
r unter</w> 194
e cht</w> 194
ö ko 194
er zeugt</w> 194
ch ter 194
re gel</w> 194
ge be</w> 194
fü hlte</w> 194
bi tten</w> 194
ex ten 194
lie ßen</w> 194
vor bei</w> 194
fo k 194
beg onnen</w> 194
är zte</w> 194
brin ging</w> 194
größ eren</w> 194
dro p</w> 194
gefü hle</w> 194
200 8</w> 194
genu tzt</w> 194
anti - 194
scienti st</w> 194
engli sch</w> 194
thro p 194
fen ster</w> 194
will ing</w> 194
unterstü tzen</w> 194
caus es</w> 194
neigh bor 194
ulti ma 194
r hy 193
m ali 193
1 6 193
z ö 193
ma ß</w> 193
ste ve</w> 193
uni on</w> 193
groß britan 193
desig ners</w> 193
qui ck</w> 193
crea tivity</w> 193
10 ,000</w> 193
inst al 193
bemer kens 193
att ac 193
sle ep</w> 193
complexi ty</w> 193
e chte</w> 192
1 4 192
sch al 192
di o 192
bi a</w> 192
gl as 192
hel ped</w> 192
car ry</w> 192
eigen es</w> 192
clo ser</w> 192
progra mm 192
lon g- 192
blu t 192
frü hen</w> 192
gal a 192
lap top</w> 192
atmosp here</w> 192
camp aig 192
spen ding</w> 192
dimension al</w> 192
qua dr 192
dest o</w> 192
g arti 191
in su 191
er stes</w> 191
un be 191
es is</w> 191
on ic</w> 191
re g 191
ol y 191
mi cha 191
wor ry</w> 191
sti r 191
pp er</w> 191
spi r 191
produ ziert</w> 191
pla yed</w> 191
sei en</w> 191
cor re 191
letz ten 191
win ter</w> 191
demo kra 191
popu lar</w> 191
tö tet</w> 191
mani pu 191
capi tal</w> 191
quo te</w> 191
a mp 190
b aum</w> 190
st al 190
re ma 190
ge m</w> 190
as ed</w> 190
ha m</w> 190
bi eren</w> 190
kom pon 190
sta at</w> 190
em ed</w> 190
lin ken</w> 190
sto ck</w> 190
pres sure</w> 190
ve - 190
voll en</w> 190
r t</w> 189
g old</w> 189
w on</w> 189
de a 189
de grees</w> 189
ac ade 189
ent schied</w> 189
wei ss</w> 189
gr an 189
her o 189
ani schen</w> 189
einfa ch 189
fre unden</w> 189
ori en</w> 189
hö he</w> 189
nä he</w> 189
bro t</w> 189
sli ghtly</w> 189
effi cient</w> 189
berü hm 189
schwe ster</w> 189
verfü gung</w> 189
wech sel 189
care er</w> 189
sear ch</w> 189
komplexi tät</w> 189
e cke</w> 188
i ght</w> 188
g sten</w> 188
f ung</w> 188
ver mei 188
se kunde</w> 188
ac tions</w> 188
ta il</w> 188
wir st</w> 188
qu elle</w> 188
än de</w> 188
lie blin 188
fl u</w> 188
cor tex</w> 188
stra ight</w> 188
fil m 188
publi shed</w> 188
val ley</w> 188
erstaun lich</w> 188
clas s 188
expl ore</w> 188
häus er</w> 188
trou ble</w> 188
wett bewer 188
p her 187
f es 187
er nähr 187
ro ll 187
be teili 187
le g</w> 187
de p 187
da ß</w> 187
ung spro 187
medi um</w> 187
bar keit</w> 187
zusammen hang</w> 187
cro s 187
kü ste</w> 187
bir th</w> 187
dise ases</w> 187
challen ges</w> 187
dor thin</w> 187
pur pose</w> 187
tol le</w> 187
erle b 187
för der 187
paki stan</w> 187
li br 186
or che 186
on y</w> 186
at ory</w> 186
de fin 186
la ws</w> 186
mo ti 186
wor k 186
com fort 186
he aring</w> 186
ali zation</w> 186
pri mi 186
näch stes</w> 186
communi cation</w> 186
schri ft</w> 186
einzi garti 186
dau ghter</w> 186
mole cules</w> 186
alisi erung</w> 186
amerikani sche</w> 186
infra structure</w> 186
isla m</w> 186
memor y</w> 186
manu fac 186
skel et 186
signific ant</w> 186
d ying</w> 185
h te</w> 185
v ent</w> 185
z wan 185
er ungs 185
re cht 185
re cent</w> 185
ab les</w> 185
ro ck 185
as si 185
mi r 185
wa hl 185
fü hle</w> 185
lie der</w> 185
bes a 185
sk y 185
tur ning</w> 185
bl ä 185
wal d</w> 185
val ent</w> 185
kar ri 185
extre me</w> 185
neur onen</w> 185
inte gri 185
adu l 185
gelö st</w> 185
a part</w> 184
an cient</w> 184
st ur 184
st ert</w> 184
re pe 184
ra pi 184
lo ad</w> 184
me t 184
fi gh 184
fu ß</w> 184
tri al</w> 184
jo hn 184
am p</w> 184
irgend wann</w> 184
wär ts</w> 184
erlau ben</w> 184
maga zine</w> 184
e th</w> 183
h art</w> 183
en ced</w> 183
ent stehen</w> 183
mo te</w> 183
and - 183
zi eh 183
tri tt</w> 183
kin d 183
lin k</w> 183
glau bt</w> 183
nor d 183
sho p</w> 183
stan ces</w> 183
effe kt</w> 183
prä sent 183
moun tain</w> 183
grei f 183
trei b 183
ern st</w> 183
feu er</w> 183
aller dings</w> 183
journ ali 183
kommunika tion</w> 183
micha el</w> 183
e f</w> 182
m as</w> 182
th om 182
ch ro 182
en ing</w> 182
ar me</w> 182
au ff 182
ver ing</w> 182
si tes</w> 182
ra ce</w> 182
ac ts</w> 182
ho tel</w> 182
som it</w> 182
aus druck</w> 182
pu zz 182
sh es</w> 182
inn en 182
col lap 182
cor ner</w> 182
eig ent 182
funk tion</w> 182
far m</w> 182
weiter hin</w> 182
fli es</w> 182
zo g</w> 182
stü cke</w> 182
supp ly</w> 182
erfahr ungen</w> 182
investi eren</w> 182
bedin gt</w> 182
ada p 182
deca des</w> 182
stol z</w> 182
add ress</w> 182
w en</w> 181
1 ,000</w> 181
wi d 181
ma terie</w> 181
de vices</w> 181
te e</w> 181
fi x</w> 181
pi l 181
schi en</w> 181
deu tlich</w> 181
arti sts</w> 181
che ck</w> 181
schu tz 181
char ge</w> 181
sat ur 181
ans wers</w> 181
gele gt</w> 181
expe cted</w> 181
wör ter</w> 181
infra struktur</w> 181
kontrolli eren</w> 181
secre t</w> 181
a gieren</w> 180
e ding</w> 180
g arten</w> 180
h oll 180
f s 180
on y 180
lo w- 180
fi el</w> 180
ta g 180
po st 180
co ffee</w> 180
ja mes</w> 180
auf nahme</w> 180
lin ien</w> 180
ken ne</w> 180
ner ven 180
krie gen</w> 180
fle xi 180
hoff entlich</w> 180
vul ner 180
g ä 179
z one</w> 179
an ten 179
al y 179
ar ma 179
ver gleich</w> 179
ver folgen</w> 179
le ts</w> 179
fü hl 179
la w 179
zi erte</w> 179
bes or 179
ak tivität</w> 179
car to 179
am bi 179
famili en 179
bir d</w> 179
nü tz 179
riesi gen</w> 179
wu chs</w> 179
beeinflus st</w> 179
gewe be</w> 179
relev ant</w> 179
tremend ous</w> 179
letzten dlich</w> 179
k m</w> 178
o ffen</w> 178
d äch 178
y l 178
h aufen</w> 178
ma ch</w> 178
om i 178
se tzung</w> 178
for eig 178
to chter</w> 178
bo t</w> 178
zi eht</w> 178
aus bildung</w> 178
war t</w> 178
tra vel 178
fä l 178
einfa cher</w> 178
differ ences</w> 178
wahr neh 178
bri dge</w> 178
asi a</w> 178
kün f 178
inspi red</w> 178
noti ced</w> 178
fern sehen</w> 178
achi ev 178
ok .</w> 178
oxy gen</w> 178
you tube</w> 178
citi zens</w> 178
a stero 177
b at</w> 177
z w 177
an satz</w> 177
di t</w> 177
ri dge</w> 177
se emed</w> 177
gen o 177
bo ston</w> 177
mp s</w> 177
chi ca 177
sta g</w> 177
krei s</w> 177
trau ri 177
bild ungs 177
worl d 177
verursa cht</w> 177
t i</w> 176
t oll 176
t ür 176
t ons</w> 176
e dge</w> 176
f ying</w> 176
b eine</w> 176
w uns 176
st ress</w> 176
be stehen</w> 176
be geg 176
ver lu 176
ver halten 176
de mi 176
na tions</w> 176
su cht</w> 176
vor berei 176
pas sed</w> 176
fun ny</w> 176
ster ne</w> 176
fil me</w> 176
gab e</w> 176
wissenschaft liche</w> 176
dau ert</w> 176
wieder um</w> 176
inspi ration</w> 176
bot schaft</w> 176
erwar tet</w> 176
tom o 176
verkauf t</w> 176
wuns ch</w> 176
a h 175
ro t</w> 175
ge halten</w> 175
ver bra 175
no tion</w> 175
ra id</w> 175
lo sen</w> 175
so zusagen</w> 175
rei sen</w> 175
tur ing</w> 175
cre ates</w> 175
lea ds</w> 175
bri tish</w> 175
haup ts 175
tis sue</w> 175
rhy th 175
a ffen</w> 174
e ar</w> 174
d ent 174
c enti 174
v an</w> 174
ro oms</w> 174
ur ing</w> 174
ha ir</w> 174
ter en</w> 174
ex pon 174
pl u 174
auf genommen</w> 174
kl ingt</w> 174
sol di 174
fr en 174
hin dern</w> 174
ele ctro 174
versu ms</w> 174
far mers</w> 174
moder nen</w> 174
oze an 174
usu al</w> 174
impro ve</w> 174
kali forni 174
thom as</w> 174
p en</w> 173
t es 173
b ble</w> 173
ti ver</w> 173
re gen 173
di ab 173
de - 173
de b 173
su m 173
pl es</w> 173
ir es</w> 173
beg riff</w> 173
stru ctures</w> 173
ini ert</w> 173
natür liche</w> 173
politi schen</w> 173
politi sche</w> 173
lau t</w> 173
stud ying</w> 173
benö tigen</w> 173
o ther 172
t oren</w> 172
ei s 172
ro ten</w> 172
da vor</w> 172
wor st</w> 172
po unds</w> 172
tion ed</w> 172
bo at</w> 172
fe els</w> 172
stu hl</w> 172
bil dern</w> 172
ba y</w> 172
progra ms</w> 172
stre ets</w> 172
bru ch</w> 172
gest al 172
respon sibility</w> 172
supp or 172
tö ten</w> 172
thro w</w> 172
männ ern</w> 172
diesel be</w> 172
c als</w> 171
h ell</w> 171
an gen 171
st ream</w> 171
re turn</w> 171
de mic</w> 171
ni ssen</w> 171
da gegen</w> 171
ci vil</w> 171
res sed</w> 171
dr ü 171
bar es</w> 171
kre u 171
frei en</w> 171
gest alten</w> 171
ern sth 171
organis ms</w> 171
condi tion</w> 171
wil d 171
atmosp häre</w> 171
easi ly</w> 171
necess arily</w> 171
flei sch</w> 171
collea gues</w> 171
brilli ant</w> 171
yel low</w> 171
erfor schen</w> 171
e ty</w> 170
f light</w> 170
- jähri 170
2 1</w> 170
un sicht 170
be halten</w> 170
ver besser 170
se el 170
ent lang</w> 170
te d- 170
wei ten</w> 170
to des 170
con fi 170
res ol 170
ja pan 170
des pi 170
wä chst</w> 170
proble men</w> 170
stor s</w> 170
ke hren</w> 170
cu st 170
selb er</w> 170
ori enti 170
stand s</w> 170
va g 170
bro ken</w> 170
exi st 170
disco very</w> 170
identi fi 170
gese tze</w> 170
gebi ete</w> 170
pain ting</w> 170
schwar ze</w> 170
benö tigt</w> 170
stopp ed</w> 170
windo w</w> 170
feed back</w> 170
großbritan nien</w> 170
comfort able</w> 170
f s</w> 169
s or</w> 169
er möglichen</w> 169
au ton 169
re cy 169
ne arly</w> 169
ac cor 169
den noch</w> 169
rea gieren</w> 169
sta b</w> 169
stor ben</w> 169
pri mar 169
sam er</w> 169
imp li 169
gew onnen</w> 169
stra hl 169
win d 169
shi ft</w> 169
gemein de</w> 169
communi cate</w> 169
possi bility</w> 169
religi ö 169
electri c</w> 169
mas sen 169
krea tivität</w> 169
buch stä 169
risi ko</w> 169
figu red</w> 169
imagin ation</w> 169
asse mb 169
k ir 168
m ol 168
g ungs 168
h as 168
f au 168
di stin 168
be ten</w> 168
le uni 168
si tzt</w> 168
ra tional</w> 168
sa ß</w> 168
hi bi 168
wor über</w> 168
bo un 168
af raid</w> 168
br on 168
inter face</w> 168
sol daten</w> 168
plan ets</w> 168
ve ge 168
entwick elten</w> 168
kno wing</w> 168
besch leuni 168
lau tet</w> 168
parti cles</w> 168
wahrschein lichkeit</w> 168
gest ern</w> 168
high ly</w> 168
möglich erweise</w> 168
bür ger</w> 168
hun ger</w> 168
mana gement</w> 168
beschäf tigt</w> 168
ira q</w> 168
fair ly</w> 168
phenomen on</w> 168
lands cape</w> 168
r d</w> 167
r ein</w> 167
d op 167
j ac 167
an no 167
re publi 167
re port</w> 167
sch wei 167
de fen 167
ra mi 167
bu sh</w> 167
sti ge</w> 167
des er 167
ke hr</w> 167
20 10</w> 167
mei stens</w> 167
bewe gungen</w> 167
blo g</w> 167
organi zations</w> 167
cra ft</w> 167
weiter en</w> 167
sü d 167
behand elt</w> 167
werk zeug</w> 167
att ack</w> 167
typi cal</w> 167
dem ie</w> 167
achi eve</w> 167
gelan gen</w> 167
chica go</w> 167
m - 166
y wood</w> 166
- year-old</w> 166
s hir 166
sch at 166
mo tion</w> 166
co unter 166
kl ang</w> 166
mon it 166
em ber</w> 166
mei len</w> 166
eng ine</w> 166
heraus gefunden</w> 166
por tra 166
fini shed</w> 166
religi ous</w> 166
gren ze</w> 166
opportuni ties</w> 166
steu ern</w> 166
para dig 166
neigh b 166
gla m 166
versor gung</w> 166
kore a</w> 166
a cht 165
h all</w> 165
b aut</w> 165
x es</w> 165
er stellen</w> 165
el ements</w> 165
sch alten</w> 165
di sor 165
ma m 165
de t 165
ra in 165
mi ll 165
gi ant</w> 165
gi lt</w> 165
fi cial</w> 165
fa ch 165
pi en</w> 165
col ors</w> 165
vol un 165
cor e</w> 165
har d 165
erinn ert</w> 165
cy ber 165
part ner 165
redu ce</w> 165
mark eting</w> 165
temper atur</w> 165
justi ce</w> 165
a ging</w> 164
d an</w> 164
i al</w> 164
c ers</w> 164
g n 164
ge danke</w> 164
be tr 164
ra d</w> 164
for ever</w> 164
mm a</w> 164
br and</w> 164
lu cky</w> 164
jahr es</w> 164
pri son</w> 164
hel ping</w> 164
ve y</w> 164
mom ents</w> 164
dri tten</w> 164
posi te</w> 164
cho ices</w> 164
weiter es</w> 164
stei gt</w> 164
städ ten</w> 164
relation ships</w> 164
intelligen z</w> 164
respe ct</w> 164
leb te</w> 164
spar en</w> 164
slo w 164
necess ary</w> 164
verdi enen</w> 164
kurz em</w> 164
expon enti 164
a vo 163
a gree</w> 163
b one</w> 163
w om 163
no chmal</w> 163
co ast</w> 163
so genan 163
inter act</w> 163
par is</w> 163
uni versums</w> 163
hin ein 163
desig ns</w> 163
col um 163
it i</w> 163
chil d 163
voll kommen</w> 163
brea k 163
sü da 163
gol f</w> 163
pol y 163
molekü le</w> 163
fotogra fi 163
kräf te</w> 163
zufä llig</w> 163
d h</w> 162
l or 162
an ce 162
ar ms</w> 162
vi si 162
bu dd 162
te ste</w> 162
po st</w> 162
nu tri 162
ex tin 162
ste h 162
il l 162
über zeu 162
mitt l 162
fort schritt</w> 162
obje kte</w> 162
jun gs</w> 162
bene fits</w> 162
competi tion</w> 162
ultima tely</w> 162
ernsth af 162
despi te</w> 162
buchstä blich</w> 162
r ab 161
r ying</w> 161
r äume</w> 161
g ur 161
. com</w> 161
z on</w> 161
ein satz</w> 161
on ate</w> 161
be zahlen</w> 161
at t</w> 161
le be 161
ha iti</w> 161
ent steht</w> 161
me mbers</w> 161
ru s</w> 161
zei tal 161
fra gten</w> 161
ani a</w> 161
differ ently</w> 161
bas e</w> 161
versu s</w> 161
20 .</w> 161
organ ic</w> 161
hir n 161
vir g 161
zusammen arbeit</w> 161
200 7</w> 161
erklär t</w> 161
besi tzen</w> 161
kauf t</w> 161
konta kt</w> 161
oly mp 161
foreig n</w> 161
a ff 160
r ö 160
b read</w> 160
s mar 160
re qu 160
be gren 160
no ise</w> 160
si ck</w> 160
vi sit</w> 160
ac cep 160
hi elten</w> 160
ho hen</w> 160
tt on</w> 160
gel assen</w> 160
ir gen 160
cu le</w> 160
pri ze</w> 160
200 5</w> 160
app ly</w> 160
mis sing</w> 160
zurück zu 160
emo tions</w> 160
finan z 160
inten si 160
schli mm 160
mou se</w> 160
rä t 160
veröffent licht</w> 160
t tel</w> 159
r and 159
s ke 159
j ung 159
in ci 159
in ne</w> 159
un bedingt</w> 159
ou l 159
de gree</w> 159
ent werfen</w> 159
gi f 159
fi f 159
zu hause</w> 159
zu gän 159
zu künf 159
wel chen</w> 159
som mer</w> 159
af ford</w> 159
co ol 159
gu n</w> 159
ga tion</w> 159
ul tra 159
ev ents</w> 159
hei li 159
ob ama</w> 159
ani ma 159
ück en</w> 159
rie f</w> 159
jo in</w> 159
durch geführt</w> 159
ologi sts</w> 159
ker n 159
sequ ences</w> 159
perspe ktive</w> 159
nahr ungs 159
setz te</w> 159
d ents</w> 158
i phone</w> 158
c ard</w> 158
- up</w> 158
b ang 158
ti tel</w> 158
the men</w> 158
mo ves</w> 158
ck ten</w> 158
sti mu 158
con st 158
et es</w> 158
ger ung</w> 158
stu fe</w> 158
nor den</w> 158
ari an</w> 158
ef fort</w> 158
land schaft</w> 158
ther a 158
hop efully</w> 158
cha os</w> 158
tau chen</w> 158
sä tz 158
cal cu 158
tol er 158
organis men</w> 158
new spa 158
lauf e</w> 158
beschrei ben</w> 158
slow ly</w> 158
t ality</w> 157
c tu 157
2 5 157
z ar 157
ro ll</w> 157
be trifft</w> 157
ver gleichen</w> 157
der zeit</w> 157
gi ert</w> 157
men gen</w> 157
gr as</w> 157
co vered</w> 157
tra ined</w> 157
um gehen</w> 157
chti gkeit</w> 157
fol d</w> 157
gegen sei 157
app reci 157
schla g 157
voll ständig</w> 157
euro pe 157
wes entlichen</w> 157
hea ds</w> 157
unterstü tzung</w> 157
gent le 157
kommuni zieren</w> 157
poll en</w> 157
philosop h 157
symp tom 157
vermu tlich</w> 157
influ ence</w> 157
astron om 157
chro mo 157
haupts ächlich</w> 157
k y</w> 156
d den</w> 156
h und</w> 156
si mul 156
ne e</w> 156
men d</w> 156
her gestellt</w> 156
ger äu 156
rei cht</w> 156
ob s 156
gesch en 156
arbei teten</w> 156
brin gs</w> 156
poli o</w> 156
lea ding</w> 156
ini eren</w> 156
import antly</w> 156
asi en</w> 156
cl oud</w> 156
cal cul 156
cir cle</w> 156
engine ers</w> 156
theor eti 156
metho den</w> 156
consci ous</w> 156
klima wandel</w> 156
kümm ern</w> 156
rais ed</w> 156
phän omen</w> 156
fashi on</w> 156
fren ch</w> 156
g y 155
b and 155
w alls</w> 155
2 - 155
al u 155
ti erte</w> 155
di stance</w> 155
si r</w> 155
si erte</w> 155
ck er 155
pu ts</w> 155
lie ber</w> 155
ben ef 155
sol d</w> 155
ke e 155
sc en 155
blo g 155
hol ding</w> 155
phi li 155
äl ter</w> 155
bess eren</w> 155
fiel ds</w> 155
meas u 155
enga ge</w> 155
exper ten</w> 155
beeinflus sen</w> 155
brie f</w> 155
ökon om 155
benef it</w> 155
m on</w> 154
l ass</w> 154
v es 154
2 , 154
th esi 154
st ö 154
ab li 154
be tt</w> 154
at temp 154
se ctor</w> 154
ha i</w> 154
sp or 154
gi ft</w> 154
do cum 154
tr end</w> 154
fe male</w> 154
über zeugt</w> 154
groß teil</w> 154
tä glich</w> 154
sei t 154
entwick elte</w> 154
wahr e</w> 154
mathemati cs</w> 154
milliar de</w> 154
institu tion</w> 154
krei s 154
inst in 154
unterschied lichen</w> 154
mexi co</w> 154
easi er</w> 154
grab en</w> 154
absol ute</w> 154
k eln</w> 153
d p</w> 153
g li 153
er ster</w> 153
an z</w> 153
al a</w> 153
or gan</w> 153
wi t 153
di ent</w> 153
ver le 153
fi ll</w> 153
bi bli 153
fa hr</w> 153
con cent 153
gr essi 153
qu anti 153
gu l 153
gel esen</w> 153
um ge 153
dan k 153
star b</w> 153
ori ga 153
fal sche</w> 153
basi ert</w> 153
pho to</w> 153
spr ing</w> 153
respon d</w> 153
cap able</w> 153
hinter grund</w> 153
bild schirm</w> 153
verbrei tet</w> 153
verstän dlich</w> 153
descri be</w> 153
ziel e</w> 153
graph y</w> 153
symbo l</w> 153
präsi dent</w> 153
transforma tion</w> 153
gefän gnis</w> 153
irgen det 153
k tu 152
i an</w> 152
2 . 152
z ung</w> 152
st ür 152
ti tude</w> 152
di schen</w> 152
mo thers</w> 152
tu e</w> 152
zi g</w> 152
pa th 152
il ed</w> 152
gh t- 152
pre vi 152
cre atures</w> 152
vol u 152
eu r</w> 152
mis s 152
wunder bare</w> 152
flä chen</w> 152
tex as</w> 152
back ground</w> 152
galax y</w> 152
separ ate</w> 152
agri culture</w> 152
suffer ing</w> 152
irgendet was</w> 152
t oni 151
r aus 151
f fic</w> 151
b i</w> 151
s wa 151
9 5</w> 151
ö k 151
di eren</w> 151
be hinder 151
at ri 151
ri d</w> 151
vi a</w> 151
wa ve</w> 151
da hin</w> 151
na mes</w> 151
con cep 151
kön nt</w> 151
her unter 151
tra ffic</w> 151
schi cht</w> 151
fac tory</w> 151
mar kt 151
sto ßen</w> 151
sur ge 151
ler n 151
land wirtschaft</w> 151
sozi al 151
ing - 151
respon sible</w> 151
cat ch</w> 151
auth enti 151
überra sch 151
wirtschaft lichen</w> 151
ug anda</w> 151
elektr oni 151
l ack</w> 150
ge wissen</w> 150
si ster</w> 150
vi et 150
ac i 150
la dy</w> 150
mu sk 150
ci de</w> 150
zi erten</w> 150
mor gens</w> 150
ger ü 150
lie bt</w> 150
vor han 150
fac ili 150
dr in</w> 150
mü tter</w> 150
beg ins</w> 150
gesch le 150
ken n 150
ki t 150
ster b 150
call s</w> 150
teil chen</w> 150
billi ons</w> 150
blu t</w> 150
brea st</w> 150
wunder bar</w> 150
grün det</w> 150
perfe kt</w> 150
wohn er</w> 150
consu mption</w> 150
interessi eren</w> 150
sud den</w> 150
norm ally</w> 150
begei stert</w> 150
karri ere</w> 150
e mail</w> 149
n om 149
h ell 149
b a</w> 149
b f</w> 149
b ing</w> 149
s her 149
ti s</w> 149
or ed</w> 149
di plo 149
si li 149
ter y</w> 149
la ger</w> 149
gr au 149
her r</w> 149
des ert</w> 149
dr y</w> 149
ele mente</w> 149
produ k 149
nor male</w> 149
ak tiv</w> 149
coun t</w> 149
experi ment 149
univer sal</w> 149
dri ttel</w> 149
hom e 149
erzä hle</w> 149
identi ty</w> 149
mat ters</w> 149
leb ten</w> 149
mou th</w> 149
less on</w> 149
py rami 149
d ä 148
g yp 148
en det</w> 148
un e</w> 148
ab sor 148
de stru 148
sa ving</w> 148
sa har 148
sp li 148
sp häre</w> 148
op posite</w> 148
fi cation</w> 148
fi lled</w> 148
na h</w> 148
zu hören</w> 148
fa i 148
gl as</w> 148
ste ps</w> 148
bei spiel 148
din ner</w> 148
bra chten</w> 148
ki d 148
brau chten</w> 148
ler nt</w> 148
vir en</w> 148
kti ven</w> 148
auß en 148
oper ating</w> 148
bru st 148
kol le 148
institu tionen</w> 148
oc cur 148
nan o 148
kamp ag 148
gewis se</w> 148
promi se</w> 148
cau ght</w> 148
spir it</w> 148
adul ts</w> 148
verbra cht</w> 148
f ell</w> 147
2 7</w> 147
3 d</w> 147
in ti 147
er ci 147
er seits</w> 147
en e 147
ver tei 147
de stens</w> 147
pro found</w> 147
la chen</w> 147
me at</w> 147
wei li 147
for scher</w> 147
su it</w> 147
wir kt</w> 147
all eine</w> 147
du e</w> 147
war m</w> 147
fin gen</w> 147
wo her</w> 147
über zeugen</w> 147
ph arma 147
spe ak 147
ken nt</w> 147
enti rely</w> 147
experi mente</w> 147
sm all 147
belie f</w> 147
bro ther</w> 147
bro ad 147
stän den</w> 147
nan nte</w> 147
deter min 147
concer ned</w> 147
chea p</w> 147
invest ment</w> 147
chur ch</w> 147
figh ting</w> 147
other wise</w> 147
c ents</w> 146
u - 146
v at 146
1 9</w> 146
2 2</w> 146
2 ,000</w> 146
sch win 146
be hör 146
sp ort</w> 146
op en- 146
ho he</w> 146
wei ßt</w> 146
ges pi 146
do ku 146
con c 146
gr and</w> 146
qu es</w> 146
pu mp 146
str ö 146
sc ulp 146
wis dom</w> 146
gew inn 146
mitt ed</w> 146
dol ph 146
off er</w> 146
studi ed</w> 146
hor ri 146
effi ci 146
statisti cs</w> 146
dür fen</w> 146
inv est</w> 146
spee ch</w> 146
campaig n</w> 146
k i</w> 145
k le</w> 145
6 5</w> 145
en joy</w> 145
un er 145
ma ma</w> 145
ge gent 145
ge habt</w> 145
ver mögen</w> 145
ne ten</w> 145
sp ot</w> 145
we ar</w> 145
pl ä 145
ye ster 145
chi p</w> 145
kon stru 145
lich sten</w> 145
über tragen</w> 145
neu er</w> 145
fä hrt</w> 145
ari es</w> 145
lea ving</w> 145
stra ß 145
wahr en</w> 145
pen gu 145
han del</w> 145
bili ties</w> 145
bekan nten</w> 145
cel er 145
indepen dent</w> 145
accor ding</w> 145
k ni 144
t ent 144
in t</w> 144
ch ers</w> 144
or al</w> 144
di alo 144
ro bert</w> 144
be at</w> 144
ra hmen</w> 144
ac tivi 144
fi cally</w> 144
ju mp</w> 144
gel d 144
stu ck</w> 144
ander em</w> 144
neu gi 144
hin weg</w> 144
ad op 144
pri ori 144
führ ten</w> 144
hel ps</w> 144
arti cle</w> 144
belie ved</w> 144
im provi 144
crea tion</w> 144
cri me</w> 144
vir tual</w> 144
kre bs 144
wissenschaft lichen</w> 144
glück licherweise</w> 144
gri ff</w> 144
perfe ctly</w> 144
schau te</w> 144
simp li 144
seri ously</w> 144
limi ted</w> 144
open ed</w> 144
erkan nte</w> 144
gala xi 144
kaliforni en</w> 144
a gre 143
d einen</w> 143
n el 143
in fini 143
er weiter 143
ch em 143
au tomo 143
di um</w> 143
be t</w> 143
be es</w> 143
ri tual</w> 143
ha te</w> 143
op fer</w> 143
ca mp</w> 143
versu chten</w> 143
win kel</w> 143
stand ar 143
va st</w> 143
kur ze</w> 143
bro wn</w> 143
econom ics</w> 143
fün f 143
10 .000</w> 143
sten z</w> 143
galax ies</w> 143
prakti sch</w> 143
angel es</w> 143
teles cop 143
diab etes</w> 143
viet na 143
gespi elt</w> 143
d ungs 142
l - 142
c tivity</w> 142
er ter</w> 142
er krank 142
en ess</w> 142
ti gung</w> 142
el a</w> 142
ein gesetzt</w> 142
sch lei 142
di cht</w> 142
di enen</w> 142
be ach</w> 142
be kamen</w> 142
be stimmen</w> 142
si chten</w> 142
mi x</w> 142
ne ts</w> 142
wen ig 142
wei ßen</w> 142
we gs</w> 142
so il</w> 142
war ming</w> 142
gel ei 142
wur z 142
hei m</w> 142
star ke</w> 142
zä hlen</w> 142
kno chen</w> 142
berei che</w> 142
pat ent</w> 142
bau ern</w> 142
rück en</w> 142
cl ou 142
ähn liche</w> 142
air plane</w> 142
netz werke</w> 142
maj ority</w> 142
abhängi g</w> 142
princi ple</w> 142
ungsk raft</w> 142
spie gel</w> 142
therap y</w> 142
civili zation</w> 142
drea ms</w> 142
yester day</w> 142
t tet</w> 141
r ough 141
s na 141
th - 141
st ein 141
li c</w> 141
on ed</w> 141
ver langen</w> 141
ver hindern</w> 141
at ta 141
op ini 141
mo du 141
wer ten</w> 141
zi e 141
gu ar 141
so wie</w> 141
stell er</w> 141
gra tion</w> 141
schi mpan 141
spe c 141
comp are</w> 141
geschi ckt</w> 141
bli ck 141
am i</w> 141
ner v 141
vö gel</w> 141
euro pä 141
mole cule</w> 141
langu ages</w> 141
kri min 141
argu e</w> 141
top s</w> 141
engine er</w> 141
bemer kt</w> 141
equ al</w> 141
sug ge 141
telef on</w> 141
profession al</w> 141
dopp elt</w> 141
spac es</w> 141
spür en</w> 141
commer cial</w> 141
zeital ter</w> 141
const antly</w> 141
e chten</w> 140
m o</w> 140
l ou 140
b y 140
er es</w> 140
en ever</w> 140
ein setzen</w> 140
ge tötet</w> 140
ge fahr</w> 140
wh enever</w> 140
ac celer 140
me th 140
über prü 140
geb ro 140
every day</w> 140
wis st</w> 140
mei ster</w> 140
experi ences</w> 140
sor ge</w> 140
bab ys</w> 140
sä tze</w> 140
klas sen 140
deli ver</w> 140
herausforder ungen</w> 140
tie fe</w> 140
inse kten</w> 140
verwand eln</w> 140
follo wed</w> 140
invi sible</w> 140
fail ure</w> 140
gebur t</w> 140
four th</w> 140
eth ni 140
dama ge</w> 140
kürz lich</w> 140
k .</w> 139
k ung</w> 139
p ort 139
m aus</w> 139
m alen</w> 139
st ung</w> 139
re präsen 139
ri chtet</w> 139
de e 139
de fine</w> 139
si erung</w> 139
pro p 139
su per</w> 139
ju d 139
us w</w> 139
lie b</w> 139
kon text</w> 139
pr oud</w> 139
bra zi 139
brau che</w> 139
gener ate</w> 139
blo ß</w> 139
200 9</w> 139
200 4</w> 139
schwi mmen</w> 139
bü ro 139
emo tion</w> 139
mat ch</w> 139
appro pri 139
pain t</w> 139
predi ct</w> 139
verbrei ten</w> 139
verantwor tlich</w> 139
ira k</w> 139
princi ples</w> 139
gradu ate</w> 139
spru ch</w> 139
hus band</w> 139
moti vation</w> 139
r and</w> 138
d . 138
i cally</w> 138
g ere</w> 138
g ment</w> 138
u lar</w> 138
5 0 138
ä gyp 138
en s 138
un less</w> 138
ein ander 138
ma tes</w> 138
de ckt</w> 138
pro be</w> 138
ck en 138
tu s</w> 138
we aring</w> 138
pp t</w> 138
gel aden</w> 138
min destens</w> 138
em bra 138
sto ck 138
kr ank</w> 138
passi onate</w> 138
stand ards</w> 138
cri min 138
pf ei 138
ran dom</w> 138
frü h</w> 138
dau ern</w> 138
priv at 138
mana ged</w> 138
dyna mic</w> 138
inse cts</w> 138
emer gen 138
imm er 138
schmer z</w> 138
pin gu 138
jan u 138
lieblin gs 138
europe an</w> 138
p el 137
th eit</w> 137
an gle</w> 137
st ent</w> 137
or row</w> 137
di chte</w> 137
be zahlt</w> 137
ent ing</w> 137
con ta 137
tr äume</w> 137
auf hören</w> 137
pa ges</w> 137
inter agieren</w> 137
dr än 137
ele ph 137
imp ul 137
mus st</w> 137
organi zed</w> 137
hän den</w> 137
trans form</w> 137
trei bt</w> 137
genau er</w> 137
electri cal</w> 137
tom orrow</w> 137
survi val</w> 137
för dern</w> 137
equi valent</w> 137
unterneh mer</w> 137
norm alen</w> 137
therap ie</w> 137
compar ed</w> 137
weal th</w> 137
seit dem</w> 137
p ment</w> 136
n est</w> 136
f und</w> 136
st y</w> 136
ein druck</w> 136
re chts 136
sch em</w> 136
ma ster</w> 136
ge zogen</w> 136
be ar</w> 136
ver zwei 136
le tter</w> 136
sa fe 136
po e 136
ex erci 136
gr y</w> 136
gl es</w> 136
gl ing</w> 136
br as 136
war s</w> 136
man hat 136
ali ze</w> 136
ze i</w> 136
ke y 136
ke eping</w> 136
tre ated</w> 136
fl ori 136
pla yer</w> 136
gew and 136
dri ven</w> 136
stan ford</w> 136
bro w 136
pho to 136
überra scht</w> 136
surpri se</w> 136
existi eren</w> 136
grü n</w> 136
fail ed</w> 136
partici pa 136
fascin ating</w> 136
hori zon 136
verhalten s 136
child hood</w> 136
ske p 136
c ating</w> 135
g on</w> 135
in fi 135
er st 135
go ti 135
mo tiv 135
bo ten</w> 135
qu ellen</w> 135
fe tt 135
tri lli 135
tri cks</w> 135
ko gni 135
hand y</w> 135
19 4 135
eini ger</w> 135
sho es</w> 135
vo te</w> 135
dire ct</w> 135
zeich nungen</w> 135
gese tz 135
sign als</w> 135
chr oni 135
multi ple</w> 135
leist ungen</w> 135
curr ently</w> 135
erkenn tnis</w> 135
wher e 135
zau ber 135
wahrneh mung</w> 135
deb ate</w> 135
lebe wesen</w> 135
k y 134
p fe</w> 134
t als</w> 134
e sts</w> 134
i mi 134
y a 134
h ing</w> 134
th ri 134
in sel</w> 134
er hält</w> 134
ein heit</w> 134
re gen</w> 134
wh om</w> 134
se at</w> 134
wa ke</w> 134
tz er</w> 134
ru ral</w> 134
ex plan 134
pa ying</w> 134
pi an 134
lich em</w> 134
mar ri 134
gh t 134
lei ten</w> 134
imp f 134
plan ning</w> 134
nä her 134
flu g</w> 134
vo ices</w> 134
tan z 134
cli p</w> 134
bau ten</w> 134
nie man 134
unterschei den</w> 134
origa mi</w> 134
gegent eil</w> 134
galaxi en</w> 134
bras ili 134
s w</w> 133
1 3 133
st abili 133
wi esen</w> 133
ge hören</w> 133
de bat 133
mi ss</w> 133
mo vi 133
na vi 133
ta ste</w> 133
po ster</w> 133
nu tzt</w> 133
än e</w> 133
auf nahmen</w> 133
inter net 133
inter action</w> 133
ke ys</w> 133
ani c</w> 133
lea der</w> 133
ant ar 133
bedeu ten</w> 133
gehir ne</w> 133
kop f 133
colle ct</w> 133
exi sts</w> 133
versch mu 133
power ed</w> 133
erklär ung</w> 133
oce ans</w> 133
micro soft</w> 133
viru ses</w> 133
alisi eren</w> 133
schli mmer</w> 133
drück t</w> 133
analy sis</w> 133
disk u 133
distribu tion</w> 133
verhäl tnis</w> 133
deep ly</w> 133
sauer stoff</w> 133
volun te 133
mittl eren</w> 133
i or</w> 132
2 3</w> 132
an ten</w> 132
an sicht</w> 132
au ti 132
di sche</w> 132
ver wal 132
yo un 132
se as 132
vi lle</w> 132
vi cti 132
hr en 132
wei rd</w> 132
po st- 132
tr ie</w> 132
thin ks</w> 132
co ck 132
auf bauen</w> 132
pa zi 132
ga y</w> 132
ga ther 132
ber g 132
vor teil</w> 132
des ire</w> 132
kon zep 132
tri p</w> 132
dr üben</w> 132
gh ana</w> 132
tä ts 132
star ten</w> 132
ken ya</w> 132
inn eren</w> 132
ki lo 132
pla y 132
desig ning</w> 132
poli zei</w> 132
mei ste</w> 132
har der</w> 132
hö her</w> 132
zusammen zu 132
gegen satz</w> 132
spr ingen</w> 132
plat t 132
versch winden</w> 132
dimen sions</w> 132
evi l</w> 132
cir cum 132
nar ra 132
increas ingly</w> 132
vehi cle</w> 132
amei sen</w> 132
musc le</w> 132
t u</w> 131
2 50</w> 131
z win 131
er finden</w> 131
er scheinen</w> 131
an rei 131
ch ap 131
ge storben</w> 131
mi d 131
mo bili 131
na tionen</w> 131
ho ffen</w> 131
men tioned</w> 131
kom b 131
sh all</w> 131
is ol 131
mar ried</w> 131
fr ank</w> 131
pre vent</w> 131
bar er</w> 131
gener ationen</w> 131
sub - 131
200 1</w> 131
rela tiv</w> 131
schle chten</w> 131
individu en</w> 131
öffent liche</w> 131
forsch ungs 131
samm lung</w> 131
körper s</w> 131
dien st 131
bla u</w> 131
descri bed</w> 131
sup pose</w> 131
häu fig</w> 131
weap ons</w> 131
metaph or</w> 131
neighbor hood</w> 131
gä be</w> 131
k alien</w> 130
g a</w> 130
w ein 130
4 0 130
er ed</w> 130
an gi 130
un gewöhn 130
ar my</w> 130
di sci 130
ab schluss</w> 130
be darf</w> 130
ver trau 130
de partment</w> 130
sa d</w> 130
ni s 130
lo sing</w> 130
ac tor</w> 130
me e</w> 130
bi enen</w> 130
com mit 130
su mm 130
wer bung</w> 130
den e</w> 130
he ar 130
qu as 130
mm ern</w> 130
ca mb 130
fin ger 130
sh ort 130
ig keit</w> 130
fac ts</w> 130
bas e 130
wichti gen</w> 130
sm ell</w> 130
bri tain</w> 130
est abli 130
gegen wär 130
dra wing</w> 130
schrei b 130
colle ctive</w> 130
öffent lichkeit</w> 130
emo tionen</w> 130
forder t</w> 130
cop y</w> 130
caus ed</w> 130
illu sion</w> 130
lun ch</w> 130
constru ction</w> 130
schlüs sel 130
nö tig</w> 130
transi tion</w> 130
sop hi 130
o ffer 129
m äu 129
v o</w> 129
2 4 129
in ge</w> 129
er scheint</w> 129
an genommen</w> 129
ti ges</w> 129
re fer 129
ge fahren</w> 129
ne goti 129
ac c 129
ent spricht</w> 129
la yer</w> 129
wel le</w> 129
ste el</w> 129
sh oul 129
stu pi 129
pre - 129
produ cing</w> 129
lea ves</w> 129
spiel te</w> 129
gener ations</w> 129
hol es</w> 129
clo sed</w> 129
psy cho 129
sicher heits 129
identi tät</w> 129
suc ce 129
sign ale</w> 129
ox ford</w> 129
strate gie</w> 129
sexu al</w> 129
invi ted</w> 129
emplo ye 129
gesprä ch</w> 129
wea ther</w> 129
k ari 128
a war 128
p hen</w> 128
t ough</w> 128
r ates</w> 128
n ungs 128
c tual</w> 128
w ra 128
3 2</w> 128
z op 128
ch em</w> 128
ti t 128
ge mü 128
mi le</w> 128
da ily</w> 128
wor ried</w> 128
men tieren</w> 128
co al</w> 128
ga in</w> 128
ber s</w> 128
sh or 128
gro wn</w> 128
wo bei</w> 128
ph an 128
hei sst</w> 128
ad mini 128
20 th</w> 128
weni gen</w> 128
regi onen</w> 128
berei chen</w> 128
har mon 128
schn ell 128
can ada</w> 128
sat z 128
abili ties</w> 128
sha pes</w> 128
busin esses</w> 128
lä ssi 128
chemi stry</w> 128
gar den</w> 128
micro scop 128
pac i 128
cogni tive</w> 128
exper ts</w> 128
buch stab 128
charac teri 128
grand mother</w> 128
expres sion</w> 128
affe ct</w> 128
equi pment</w> 128
open ing</w> 128
addi tion</w> 128
schlüs sel</w> 128
associ ated</w> 128
schnei den</w> 128
cont act</w> 128
entrepren eur 128
auton om 128
o gen 127
w unden</w> 127
z a</w> 127
z hei 127
an ony 127
al p 127
re ve 127
sch mu 127
sch il 127
se ction</w> 127
ter - 127
ent schul 127
pro por 127
fi x 127
tr ends</w> 127
so viel</w> 127
ten den 127
dr an</w> 127
imp lan 127
nor thern</w> 127
ak u 127
thre at</w> 127
tru g</w> 127
besch rän 127
blo gs</w> 127
blo cks</w> 127
schu he</w> 127
it ali 127
progra mme</w> 127
pho sp 127
bau m 127
cha in</w> 127
grund sätzlich</w> 127
10 0,000</w> 127
contin ent</w> 127
defini eren</w> 127
redu zieren</w> 127
alisi ert</w> 127
berü hrt</w> 127
hea vy</w> 127
ada m</w> 127
grundle gende</w> 127
augen blick</w> 127
müs ste</w> 127
class room</w> 127
rough ly</w> 127
a thei 126
p ft</w> 126
g ates</w> 126
h mt</w> 126
b right</w> 126
s can</w> 126
8 00</w> 126
ar r 126
au gu 126
ge fallen</w> 126
der ek</w> 126
pro ce 126
fi re 126
ci ous</w> 126
to ward</w> 126
lich keiten</w> 126
is on</w> 126
mar ki 126
sol ch</w> 126
sin gen</w> 126
hör ten</w> 126
fahr er</w> 126
arti ficial</w> 126
bl att</w> 126
ty - 126
politi ker</w> 126
hän gen</w> 126
stre ben</w> 126
trans l 126
tan z</w> 126
moun tains</w> 126
high est</w> 126
anal ysi 126
bekan n 126
zü ge</w> 126
feu er 126
repres ent</w> 126
wech seln</w> 126
entdeck ung</w> 126
drin k</w> 126
sequen zen</w> 126
mär kte</w> 126
aw ful</w> 126
let ters</w> 126
libr ary</w> 126
soldi ers</w> 126
japan ese</w> 126
rät sel</w> 126
straß en 126
manhat tan</w> 126
disci pl 126
k b</w> 125
o the 125
y n 125
g at 125
f at</w> 125
w under</w> 125
st eine</w> 125
st ac 125
ti li 125
di gkeit</w> 125
ge m 125
be stand</w> 125
fi schen</w> 125
mo s 125
per man 125
per cei 125
bo tt 125
mm ing</w> 125
kl ar 125
ben en</w> 125
hin sicht</w> 125
bein hal 125
cor ruption</w> 125
stra te</w> 125
hö re</w> 125
hol z</w> 125
pf lich 125
syste men</w> 125
200 6</w> 125
kul turen</w> 125
verbin det</w> 125
strate gy</w> 125
aspe kt</w> 125
anwen den</w> 125
gefähr lich</w> 125
advan tage</w> 125
süda fri 125
t ac 124
s lu 124
v able</w> 124
er tes</w> 124
an er</w> 124
an nehmen</w> 124
st in</w> 124
al e 124
re fu 124
re tro 124
re mote</w> 124
ro ots</w> 124
da ch</w> 124
tu mor 124
po le</w> 124
fa ktor</w> 124
sti gen</w> 124
ju gend 124
auf gebaut</w> 124
chi cken</w> 124
hal be</w> 124
sy l 124
unter richt</w> 124
fol ie</w> 124
besch lossen</w> 124
shi f 124
kur zen</w> 124
bro thers</w> 124
my steri 124
200 3</w> 124
pho tos</w> 124
studi eren</w> 124
taus enden</w> 124
syn dro 124
erle i</w> 124
fanta stisch</w> 124
moder ne</w> 124
appe ar</w> 124
galax ie</w> 124
terr ori 124
trin ken</w> 124
dinosau rs</w> 124
laun ched</w> 124
windo ws</w> 124
tradition ellen</w> 124
australi a</w> 124
movi es</w> 124
k ts</w> 123
e o 123
i sts</w> 123
b ank 123
s z 123
2 1 123
er setzen</w> 123
al d</w> 123
wi red</w> 123
sch wä 123
sch au</w> 123
ro und</w> 123
at em 123
wa ves</w> 123
te eth</w> 123
po or 123
sti l</w> 123
ju li 123
vor fahren</w> 123
mar ine</w> 123
tal e</w> 123
ke t</w> 123
ani sche</w> 123
em bar 123
fol gende</w> 123
emp a 123
transp lan 123
chemi cals</w> 123
kri ti 123
dimen sion</w> 123
künst ler 123
dou ble</w> 123
kilome ters</w> 123
schmer zen</w> 123
nachbar n</w> 123
charak ter</w> 123
verfüg bar</w> 123
angen eh 123
k lo 122
e ßen</w> 122
v on 122
er ei</w> 122
be st 122
ver brachte</w> 122
de aling</w> 122
ra tion 122
ac tiv 122
ent standen</w> 122
gen om</w> 122
for ced</w> 122
nu ll</w> 122
du tz 122
sta mmt</w> 122
schi zop 122
hei ßen</w> 122
pres er 122
leben ser 122
natür lichen</w> 122
verb re 122
blo ck 122
stro m 122
cat eg 122
expe di 122
zun eh 122
mark et 122
dun kl 122
mikro sk 122
erstaun liche</w> 122
fern seh 122
surpri sed</w> 122
wirtschaft liche</w> 122
emer ging</w> 122
zerstör en</w> 122
mess er</w> 122
komplex e</w> 122
fossi l</w> 122
toi le 122
anno un 122
nerv ous</w> 122
i i</w> 121
c tional</w> 121
c asi 121
h t 121
b o</w> 121
j on 121
en jo 121
al zhei 121
der ship</w> 121
zu schau 121
for ming</w> 121
ges p 121
sti cs</w> 121
do ts</w> 121
con sequences</w> 121
inter view</w> 121
gro ss 121
kon ser 121
ten de</w> 121
sc ene</w> 121
beg ri 121
sto ffen</w> 121
dri tt 121
scha den</w> 121
kur s</w> 121
wach stu 121
sub stan 121
gegen d</w> 121
techni cal</w> 121
rela tive</w> 121
kil ling</w> 121
plac ed</w> 121
mole cular</w> 121
ker l</w> 121
essen tial</w> 121
feel ings</w> 121
resour ce</w> 121
clin ical</w> 121
surpri sing</w> 121
viol ent</w> 121
dinosau rier</w> 121
advan ced</w> 121
inspiri ert</w> 121
intelle ctual</w> 121
notwen dig</w> 121
bie tet</w> 121
quas i</w> 121
p - 120
o oh</w> 120
n .</w> 120
n de</w> 120
y n</w> 120
b ein</w> 120
b ell</w> 120
2 6</w> 120
an teil</w> 120
en ha 120
sch rän 120
ver da 120
ver größ 120
lo ck</w> 120
na i 120
gel t</w> 120
tri als</w> 120
ander th 120
hin ten</w> 120
pri me</w> 120
olo ge</w> 120
ce - 120
zwe ck</w> 120
leben den</w> 120
import ance</w> 120
clu b</w> 120
bru der</w> 120
rech en 120
erle bt</w> 120
leist ungs 120
besu chen</w> 120
zerstör t</w> 120
intui tion</w> 120
proper ty</w> 120
medizini sche</w> 120
bedürf nisse</w> 120
pleas ure</w> 120
kind heit</w> 120
präsent ation</w> 120
kampag ne</w> 120
l i</w> 119
g ps</w> 119
w ine</w> 119
' 9 119
7 00</w> 119
be weise</w> 119
be antworten</w> 119
ver fahren</w> 119
ver teilt</w> 119
no r</w> 119
de mand</w> 119
ent ro 119
me - 119
zu sätz 119
su gar</w> 119
je den 119
to x 119
fa ktoren</w> 119
ste ch 119
schi ff</w> 119
mü ll</w> 119
sk la 119
pre mi 119
bein a 119
lea dership</w> 119
organ s</w> 119
musi k 119
lö cher</w> 119
ologi sche</w> 119
emp ty</w> 119
kü hl 119
hou ses</w> 119
ran ts</w> 119
archite kten</w> 119
bat tery</w> 119
oc casi 119
fest stellen</w> 119
opti mis 119
hon est</w> 119
schwar zen</w> 119
will st</w> 119
persön lich</w> 119
para do 119
prot eins</w> 119
democra tic</w> 119
erken nt</w> 119
regu lar</w> 119
innova tive</w> 119
satur n</w> 119
cust om 119
bibli othe 119
where as</w> 119
t ie</w> 118
g ö 118
h an</w> 118
b ä 118
b by</w> 118
er mu 118
er nä 118
an gesehen</w> 118
re action</w> 118
ma ker</w> 118
be mü 118
at men</w> 118
si tz 118
sp u 118
me tal</w> 118
mo tivi 118
to ber</w> 118
ex pan 118
mor tality</w> 118
sh eit</w> 118
kon kur 118
zei tung</w> 118
fac ing</w> 118
em ent 118
imp res 118
pla yers</w> 118
cor al</w> 118
call ing</w> 118
eu er</w> 118
mitt ler 118
plat form</w> 118
sand wi 118
bir th 118
los sen 118
hor se</w> 118
dimen sionen</w> 118
spo ke</w> 118
cen ters</w> 118
dia gramm</w> 118
wech sel</w> 118
vier tel</w> 118
well en 118
expres s</w> 118
tar get</w> 118
adu lt</w> 118
graph ie</w> 118
fabri k</w> 118
accoun t</w> 118
vorstell ungen</w> 118
cele bra 118
acci dent</w> 118
long- term</w> 118
verlu st</w> 118
avo id</w> 118
jeden falls</w> 118
k ungen</w> 117
p hr 117
g all 117
g ment 117
f ie</w> 117
s ser</w> 117
w ellen</w> 117
li ked</w> 117
di r 117
ma kers</w> 117
si ght</w> 117
wa hn 117
hr e</w> 117
ent worfen</w> 117
hi dden</w> 117
la dies</w> 117
to t</w> 117
den s</w> 117
sel ten</w> 117
ca st</w> 117
lu stig</w> 117
wä hl 117
fol ks</w> 117
är m 117
car ds</w> 117
besch ei 117
ba hn 117
clo ck</w> 117
effe ctively</w> 117
schri ft 117
schla fen</w> 117
hil fs 117
lehr en</w> 117
resear chers</w> 117
ban g</w> 117
defini tely</w> 117
shar ks</w> 117
poten zi 117
jä hr 117
consi dered</w> 117
stär ker</w> 117
medika ment</w> 117
affe cted</w> 117
elektri zität</w> 117
mexi ko</w> 117
maß stab</w> 117
disp lay</w> 117
symme tri 117
teu er</w> 117
mitg lieder</w> 117
konfli kt</w> 117
gravi ty</w> 117
arri ved</w> 117
kit chen</w> 117
safe ty</w> 117
beina he</w> 117
m und</w> 116
f las 116
an ger</w> 116
an throp 116
st op 116
or bit</w> 116
el ement 116
on lin 116
sch me 116
ge beten</w> 116
be weisen</w> 116
ver mitteln</w> 116
si gkeit</w> 116
se ts</w> 116
ne ath</w> 116
na - 116
ci l</w> 116
den - 116
ex change</w> 116
wel chem</w> 116
qu ant 116
inter n 116
lie fer 116
bei zu 116
ka ffee</w> 116
under neath</w> 116
tal ent</w> 116
geb er</w> 116
gesch ü 116
produ ctive</w> 116
19 60</w> 116
thou ghts</w> 116
za hn 116
experi enced</w> 116
teil neh 116
bl auen</w> 116
win gs</w> 116
hom es</w> 116
gemein den</w> 116
mathemati cal</w> 116
wes entlich</w> 116
atom s</w> 116
bevöl ker 116
kapi tal</w> 116
gesundheits wesen</w> 116
sug gest 116
restau rants</w> 116
magne tic</w> 116
agen da</w> 116
unabhängi g</w> 116
initi ative</w> 116
world wide</w> 116
spec trum</w> 116
camb ridge</w> 116
paci fic</w> 116
k tes</w> 115
l ac 115
c ab 115
c tural</w> 115
b lieb</w> 115
s elling</w> 115
j es 115
5 .000</w> 115
al ex 115
li qu 115
ein deu 115
on ing</w> 115
re ti 115
di glich</w> 115
ge ändert</w> 115
ver ab 115
le diglich</w> 115
sa al</w> 115
te ure</w> 115
te sting</w> 115
da m</w> 115
bi ert</w> 115
wei t 115
zu ge 115
nu tzung</w> 115
do w</w> 115
do gs</w> 115
tt en 115
fin ish</w> 115
pi lot</w> 115
sen de</w> 115
kon fron 115
gel y</w> 115
wo o 115
lan ger</w> 115
fl at</w> 115
wissen schaften</w> 115
fil ter</w> 115
speci fically</w> 115
possi bilities</w> 115
oper ate</w> 115
gleich heit</w> 115
radi ation</w> 115
bre ath</w> 115
sour ces</w> 115
transp ort</w> 115
prote ction</w> 115
fur cht 115
nü tzlich</w> 115
dun kel 115
erlau b 115
stär ke</w> 115
herr en</w> 115
beri chten</w> 115
chri sti 115
beschäf tigen</w> 115
ziel en</w> 115
kompli ziert</w> 115
brü cke</w> 115
durchschnitt liche</w> 115
west lichen</w> 115
digital en</w> 115
evolution ary</w> 115
wettbewer b</w> 115
exist ence</w> 115
mam mo 115
sili con</w> 115
beispiel sweise</w> 115
flori da</w> 115
1 20</w> 114
th esis</w> 114
ti gte</w> 114
re pu 114
re par 114
di et</w> 114
ma ps</w> 114
ma gni 114
be glei 114
ver blü 114
se tt 114
se tting</w> 114
sa ved</w> 114
ent sch 114
hi v- 114
wei ße</w> 114
ck ets</w> 114
mu tter 114
pe ak</w> 114
so was</w> 114
her o</w> 114
ga p</w> 114
pi cked</w> 114
il legal</w> 114
wirk liche</w> 114
sol ved</w> 114
ke hrt</w> 114
gesch lagen</w> 114
las se</w> 114
fl us 114
ko chen</w> 114
pres se</w> 114
cul tures</w> 114
im um</w> 114
rel ation</w> 114
pf le 114
cli ck</w> 114
kor ruption</w> 114
bau te</w> 114
frei willi 114
komple x</w> 114
situ ationen</w> 114
mole kul 114
ton y</w> 114
zü glich</w> 114
fran zö 114
increas ing</w> 114
erwä hnt</w> 114
müs sten</w> 114
simu lation</w> 114
schwier igkeiten</w> 114
afrikani schen</w> 114
bron x</w> 114
zugän glich</w> 114
dee per</w> 114
sophi sti 114
p tion</w> 113
p ack</w> 113
t ts</w> 113
n in 113
f an</w> 113
b ol 113
z ten</w> 113
j ack</w> 113
in halt</w> 113
en zy 113
wi re</w> 113
on e 113
on ie</w> 113
be d 113
se ht</w> 113
vi ert</w> 113
ac cept</w> 113
gen ü 113
hab it 113
ges und</w> 113
to ten</w> 113
ste he</w> 113
us er</w> 113
us ers</w> 113
hal t 113
wirk lichen</w> 113
kin s</w> 113
ser ve</w> 113
cre dit</w> 113
inn ing</w> 113
nach ts</w> 113
hel den</w> 113
fahr t</w> 113
cri ti 113
cro ss</w> 113
phi lan 113
spr ü 113
anti bio 113
hon or</w> 113
curi ous</w> 113
persön liche</w> 113
wü ste</w> 113
sug gest</w> 113
freund in</w> 113
internation alen</w> 113
mäß ig</w> 113
beein druck 113
emissi ons</w> 113
beobach tet</w> 113
zivili sation</w> 113
defin ed</w> 113
a ka 112
e wi 112
d liche</w> 112
8 5</w> 112
er wei 112
en i 112
st able</w> 112
ein richtungen</w> 112
di le 112
ma tri 112
ma ils</w> 112
ro h 112
ro bu 112
ver steht</w> 112
ver kehr</w> 112
le m</w> 112
si des</w> 112
sa ges</w> 112
sp un 112
wa chen</w> 112
la mp 112
mo bil 112
su i 112
fe bru 112
auf bau</w> 112
par aly 112
lu x 112
mar tin</w> 112
sol ange</w> 112
groß mutter</w> 112
ad verti 112
hand lungen</w> 112
ster y</w> 112
bl ack 112
gefä llt</w> 112
tan e 112
verk nü 112
vari ety</w> 112
dun kle</w> 112
aufzu bauen</w> 112
persön lichen</w> 112
swi tch</w> 112
entdeck te</w> 112
valu able</w> 112
hall o</w> 112
process es</w> 112
ins besondere</w> 112
hum or</w> 112
effici ency</w> 112
meth od</w> 112
marri age</w> 112
p ause</w> 111
o sity</w> 111
t w 111
t to</w> 111
b ani 111
3 ,000</w> 111
ch ungen</w> 111
al ed</w> 111
re stri 111
de cken</w> 111
ne tt</w> 111
sp in 111
bu ying</w> 111
ho ward</w> 111
mm elt</w> 111
fe wer</w> 111
tra in 111
vor ne</w> 111
ka pu 111
gel en 111
komm ent 111
que en</w> 111
fri end 111
hom o</w> 111
bal lo 111
effe ktiv</w> 111
rela tively</w> 111
krie ge</w> 111
identi fy</w> 111
äl t</w> 111
krei eren</w> 111
web seite</w> 111
mil k</w> 111
sil k</w> 111
statisti ken</w> 111
grü nen</w> 111
charac ters</w> 111
explo sion</w> 111
sent ence</w> 111
aufre gend</w> 111
arbeit sp 111
prepar ed</w> 111
newspa per</w> 111
fai th</w> 111
stupi d</w> 111
alzhei mer</w> 111
franzö si 111
n ern</w> 110
y i 110
c in</w> 110
u si 110
s ms</w> 110
2 1.</w> 110
er stellt</w> 110
al li 110
ar m 110
ver kehr 110
ver pflich 110
as se</w> 110
se - 110
se ktor</w> 110
sa tis 110
the me</w> 110
pro bieren</w> 110
me tri 110
wer ken</w> 110
men tion</w> 110
bo gen</w> 110
aus maß</w> 110
ben de</w> 110
gra b</w> 110
fra me</w> 110
fac tor</w> 110
bra ch</w> 110
imp le 110
medi en 110
bar ri 110
besch loss</w> 110
fas sung</w> 110
fal ten</w> 110
ach se</w> 110
conne ctions</w> 110
fel low</w> 110
dau er 110
resul tat</w> 110
chemi kalien</w> 110
brei te</w> 110
u. n.</w> 110
bezi ehen</w> 110
wonder ing</w> 110
bekan nte</w> 110
cr ash</w> 110
tex t 110
mechan is 110
enga gement</w> 110
dien st</w> 110
typi cally</w> 110
übri g</w> 110
jähri gen</w> 110
entwicklungs ländern</w> 110
austr alien</w> 110
deut sch 110
erkan nt</w> 110
hall u 110
digital e</w> 110
convin ce</w> 110
convin ced</w> 110
life time</w> 110
labor atory</w> 110
compon ents</w> 110
strahl ung</w> 110
gn ant</w> 110
schimpan sen</w> 110
liqu id</w> 110
t our</w> 109
r b</w> 109
n den</w> 109
c af 109
c us</w> 109
f ert</w> 109
s in</w> 109
er wär 109
en heit</w> 109
wi tz</w> 109
sch ar 109
di ert</w> 109
ge hei 109
le ktion</w> 109
no se</w> 109
se es</w> 109
lo g 109
mi ra 109
mi gr 109
hi e 109
fi shing</w> 109
ta sche</w> 109
ta pe</w> 109
po p</w> 109
per si 109
per ception</w> 109
zi tat</w> 109
inter ven 109
ger many</w> 109
sen ding</w> 109
stell ungen</w> 109
fu sion</w> 109
sk ulp 109
19 3 109
zwi schen 109
vo gel 109
schö pf 109
app lied</w> 109
techni ques</w> 109
contro lled</w> 109
jun ger</w> 109
human i 109
pan ts</w> 109
ton nen</w> 109
ax is</w> 109
enor me</w> 109
disa ster</w> 109
hier her</w> 109
gere gt</w> 109
gere chtigkeit</w> 109
anwen dung</w> 109
verbess ert</w> 109
molekü l</w> 109
selt sam</w> 109
introdu ced</w> 109
ernähr ung</w> 109
primar y</w> 109
requ ires</w> 109
exerci se</w> 109
employe es</w> 109
gem äl 109
d ü 108
i po 108
in je 108
in seln</w> 108
an stelle</w> 108
ch tern</w> 108
un fall</w> 108
or ange</w> 108
ein iges</w> 108
be denken</w> 108
ri o</w> 108
ri de</w> 108
sa ch 108
ni ve 108
for mer</w> 108
tu red</w> 108
fa il</w> 108
gl ü 108
her an 108
spi ritu 108
sen ses</w> 108
lan den</w> 108
ct able</w> 108
son der 108
gesch ma 108
cu tting</w> 108
mom ente</w> 108
eng th</w> 108
fil ms</w> 108
mensch licher</w> 108
politi cians</w> 108
ologi schen</w> 108
cap ture</w> 108
revol u 108
u. k.</w> 108
sequ enz</w> 108
kat eg 108
schau e</w> 108
alle l</w> 108
selbst verständlich</w> 108
unterstü tzt</w> 108
practi cal</w> 108
analy se</w> 108
setz ten</w> 108
eco system</w> 108
vag ina</w> 108
awar eness</w> 108
t ch 107
r are</w> 107
d na- 107
i so 107
f rea 107
2 8</w> 107
an - 107
an pas 107
ch el 107
ch ten 107
un it</w> 107
re ward</w> 107
ab ra 107
no on</w> 107
si tz</w> 107
ent stand</w> 107
pro ve</w> 107
te - 107
te ur 107
da men</w> 107
mo tor 107
wor auf</w> 107
bi zar 107
ta x 107
po ol</w> 107
sti f 107
con f 107
man age</w> 107
ger ei 107
rei che</w> 107
vor bei 107
gro sse</w> 107
plan es</w> 107
mit arbeiter</w> 107
vol k</w> 107
sur vey</w> 107
car rying</w> 107
arti ge</w> 107
dis zi 107
bro ke</w> 107
far mer</w> 107
wat t</w> 107
krie gs 107
person ally</w> 107
bü chern</w> 107
unglaub lichen</w> 107
lang fri 107
lang weili 107
sou thern</w> 107
gele bt</w> 107
tter t</w> 107
gesi chter</w> 107
neur on</w> 107
grü ne</w> 107
stie gen</w> 107
vertr aut</w> 107
schreck lich</w> 107
oxy to 107
äuß erst</w> 107
erfin dung</w> 107
tern al</w> 107
vulner able</w> 107
boun dar 107
previ ous</w> 107
destru ction</w> 107
entro p 107
d able</w> 106
d eln</w> 106
i erte</w> 106
f at 106
v enti 106
w l</w> 106
3 0 106
z z</w> 106
an lage</w> 106
st yle</w> 106
li fest 106
li cen 106
wi llen</w> 106
re place</w> 106
re ven 106
be weis</w> 106
be züglich</w> 106
ri di 106
lo cation</w> 106
bu cks</w> 106
go als</w> 106
na he 106
ho l</w> 106
per cent 106
and ing</w> 106
bo ttle</w> 106
pp en 106
fe der 106
et ings</w> 106
us ch</w> 106
par allel</w> 106
lie fern</w> 106
vor ge 106
über qu 106
über legen</w> 106
sc rat 106
ad ed</w> 106
ari sto 106
col li 106
compu ting</w> 106
car efully</w> 106
informa tions 106
gener ally</w> 106
cour t</w> 106
regi erungs 106
gemein schaften</w> 106
mal es</w> 106
schri ften</w> 106
cle ver</w> 106
weiter er</w> 106
nee d 106
grund lage</w> 106
gesell schaft 106
situ ations</w> 106
radi k 106
unterschie dlich</w> 106
ren e 106
repres ents</w> 106
capi tali 106
journ alist</w> 106
tren nt</w> 106
häus ern</w> 106
gebur t 106
introdu ce</w> 106
lok alen</w> 106
requi re</w> 106
teena ger</w> 106
strug gle</w> 106
mir ror</w> 106
brazi l</w> 106
appropri ate</w> 106
p m</w> 105
m ist</w> 105
c at</w> 105
g ore</w> 105
2 9</w> 105
j im</w> 105
en z 105
ro llen</w> 105
ge braucht</w> 105
ge wohn 105
ge gründet</w> 105
ver teilung</w> 105
at uren</w> 105
no tes</w> 105
se y</w> 105
wa ff 105
bu bble</w> 105
hi ts</w> 105
me mber</w> 105
mo de</w> 105
do se</w> 105
res cu 105
fe hlen</w> 105
kom m</w> 105
pu lled</w> 105
ca tional</w> 105
hal b 105
wo für</w> 105
lich ste</w> 105
hn te</w> 105
unter richten</w> 105
sol cher</w> 105
str and</w> 105
inn ere</w> 105
plan s</w> 105
plan et 105
mit ta 105
ear th 105
ts un 105
mei st</w> 105
dri ver</w> 105
hö r</w> 105
hol fen</w> 105
xi de</w> 105
lau gh 105
zusammen ge 105
stimm ung</w> 105
gegen wart</w> 105
kt or 105
heal th 105
emp fin 105
wat er 105
wat ched</w> 105
radi cal</w> 105
bat teri 105
ine vi 105
spezi ellen</w> 105
ren nen</w> 105
behavi ors</w> 105
bemer ken</w> 105
stär ken</w> 105
vil la 105
tab les</w> 105
auth ori 105
meta pher</w> 105
prinzi pien</w> 105
vorher sagen</w> 105
inv asi 105
fres h</w> 105
stamm zellen</w> 105
erwachsen e</w> 105
allge meinen</w> 105
läch eln</w> 105
ea stern</w> 105
crow d</w> 105
tempor ary</w> 105
schlus s 105
schal t 105
glam our</w> 105
hard ware</w> 105
poe try</w> 105
trilli on</w> 105
beinhal tet</w> 105
o st 104
e cu 104
i lli 104
j o</w> 104
en ni 104
el ev 104
re min 104
di sh</w> 104
ro of</w> 104
ro ads</w> 104
de fe 104
si erten</w> 104
ra d 104
ter weise</w> 104
la ke</w> 104
me etings</w> 104
go ver 104
pe ter</w> 104
kom bination</w> 104
pa y 104
chi mpan 104
ali sm</w> 104
ben e</w> 104
min er 104
schi ck 104
str ated</w> 104
ari o</w> 104
kan nte</w> 104
afri kas</w> 104
bl ing</w> 104
cer e 104
bat tle</w> 104
bur n</w> 104
bur gh</w> 104
goo ds</w> 104
geri chtet</w> 104
nation al 104
epi demic</w> 104
risi ken</w> 104
untersu chung</w> 104
verste he</w> 104
explor ation</w> 104
morali sche</w> 104
satelli te</w> 104
recei ved</w> 104
streng th</w> 104
mista ke</w> 104
moment an</w> 104
sensi tive</w> 104
fok us 104
geräu sche</w> 104
vorhan den</w> 104
chem ie</w> 104
pian o</w> 104
quant um</w> 104
deutsch land</w> 104
chimpan ze 104
k s 103
k oll 103
e k 103
g dp</w> 103
s ani 103
v as 103
1 .000</w> 103
' 8 103
in gre 103
un like</w> 103
st y 103
st ück 103
ti scher</w> 103
re st 103
ver sagen</w> 103
se li 103
der er</w> 103
fü llen</w> 103
la des 103
com fort</w> 103
tra ge 103
vor aus</w> 103
vor zustellen</w> 103
fra me 103
ser ie</w> 103
lin col 103
kan ada</w> 103
tats äch 103
kur ve</w> 103
pf und</w> 103
schrei bt</w> 103
gri d</w> 103
kol oni 103
schni tt 103
gerä usch</w> 103
schau ten</w> 103
entfer nen</w> 103
psych op 103
berü hr 103
bom b</w> 103
ris ks</w> 103
verbrei tung</w> 103
schön es</w> 103
natur ally</w> 103
geo graphic</w> 103
proper ties</w> 103
intelle ktu 103
diesel ben</w> 103
coo king</w> 103
akzep tieren</w> 103
encoura ge</w> 103
manufac turing</w> 103
kir che</w> 103
bang lades 103
schizop hren 103
onlin e- 103
a qu 102
o th</w> 102
t lichen</w> 102
r uns</w> 102
d sch 102
g on 102
z ün 102
er gibt</w> 102
ch tete</w> 102
ar do</w> 102
be a 102
be stand 102
be stä 102
ver s 102
ver se</w> 102
ha fte</w> 102
vi o 102
fi ve- 102
for mu 102
pe t</w> 102
fa ke</w> 102
aus stellung</w> 102
dar stellen</w> 102
dar unter</w> 102
sh ang 102
min es 102
ct ory</w> 102
happ i 102
pre dat 102
ad ded</w> 102
wie viel</w> 102
teil weise</w> 102
opp ing</w> 102
schri tt 102
flo gen</w> 102
technologi cal</w> 102
schle chter</w> 102
radi o 102
multi - 102
pal ä 102
lap tops</w> 102
swi m</w> 102
mov ements</w> 102
poll ution</w> 102
durchschni tt</w> 102
infe cted</w> 102
untersu cht</w> 102
tali ban</w> 102
fore sts</w> 102
geheim nis</w> 102
grafi k</w> 102
blau e</w> 102
holl ywood</w> 102
toni ght</w> 102
health care</w> 102
t nisse</w> 101
l lan 101
g rie 101
b .</w> 101
b lan 101
s ni 101
th es</w> 101
in vention</w> 101
an hand</w> 101
ch or 101
un mittel 101
ma i 101
be komme</w> 101
ver si 101
ver wir 101
as ing</w> 101
mi eren</w> 101
ac qui 101
pro ben</w> 101
hi ll</w> 101
gi gan 101
com bination</w> 101
zu frieden 101
nu ll 101
ex hibi 101
mp ed</w> 101
än ge</w> 101
pa d</w> 101
inter ests</w> 101
ul en</w> 101
zei gten</w> 101
gra in</w> 101
wo von</w> 101
unter haltung</w> 101
son gs</w> 101
spe ct</w> 101
chan nel</w> 101
lei ter</w> 101
str ing</w> 101
hin zu</w> 101
gemein same</w> 101
ba g</w> 101
dro pped</w> 101
fort schritte</w> 101
bel ast 101
kor re 101
cha mp 101
hou se 101
dau erte</w> 101
environ ments</w> 101
eben en</w> 101
bur ning</w> 101
part ners</w> 101
fla sche</w> 101
großarti gen</w> 101
gebi eten</w> 101
rech nen</w> 101
ech tz 101
erwachsen en</w> 101
internation ale</w> 101
esti mate</w> 101
rapi dly</w> 101
collap se</w> 101
gul f</w> 101
südafri ka</w> 101
jes us</w> 101
o hren</w> 100
t ank</w> 100
t ched</w> 100
n es 100
m bo 100
th a 100
in put</w> 100
an fing</w> 100
st af 100
ab sicht</w> 100
ter ed</w> 100
wei h 100
com mon 100
su l 100
aus geben</w> 100
so - 100
so weit</w> 100
res ili 100
fe hlt</w> 100
auf s</w> 100
auf nehmen</w> 100
her stellung</w> 100
ca meras</w> 100
rea ched</w> 100
ber n</w> 100
fac tors</w> 100
ele ction</w> 100
sho ot</w> 100
mensch liches</w> 100
hol z 100
gleich gewicht</w> 100
shar k</w> 100
ön t 100
psych ology</w> 100
tain ment</w> 100
consu mer</w> 100
recor ded</w> 100
kapi tel</w> 100
tis mus</w> 100
jähri ge</w> 100
för mi 100
disk ussion</w> 100
smi le</w> 100
rele ase</w> 100
quadr at 100
confi dence</w> 100
neighb ors</w> 100
opini on</w> 100
angi ogen 100
birth day</w> 100
erwei tern</w> 100
p ure</w> 99
c - 99
c ist</w> 99
g in</w> 99
g ert</w> 99
er ei 99
un k</w> 99
un clear</w> 99
ge ome 99
ver g 99
se ch 99
mi ser 99
the - 99
sp ort 99
der i 99
da me</w> 99
wor an</w> 99
wor um</w> 99
bi gen</w> 99
mu sh 99
fa kten</w> 99
af for 99
dar k 99
vor teile</w> 99
kon struk 99
über nehmen</w> 99
um feld</w> 99
is lands</w> 99
kin g 99
mü ll 99
mb le</w> 99
pres entation</w> 99
nor da 99
sei d</w> 99
coun ter</w> 99
jo e</w> 99
zä hne</w> 99
besch ä 99
schu ld</w> 99
hom o 99
hol ds</w> 99
irgend jemand</w> 99
spra ch 99
pat ri 99
cli mb</w> 99
hop ing</w> 99
spä t</w> 99
10 0.000</w> 99
gar age</w> 99
verl auf</w> 99
schwieri ger</w> 99
schwar z 99
mean ing 99
hospi tals</w> 99
philosop hi 99
sun light</w> 99
depen ds</w> 99
besser es</w> 99
lieb te</w> 99
mitg lied</w> 99
transpar ent</w> 99
photograph s</w> 99
three- dimensional</w> 99
chinesi sche</w> 99
telescop e</w> 99
wenig stens</w> 99
explan ation</w> 99
entrepreneur s</w> 99
sophisti cated</w> 99
c ry</w> 98
3 . 98
er lich</w> 98
er he 98
an te</w> 98
an ces</w> 98
an sieht</w> 98
re l</w> 98
re gre 98
ab led</w> 98
ge kauft</w> 98
be e 98
no vel</w> 98
si er 98
ol es 98
sa tions</w> 98
mi d- 98
vi sible</w> 98
bo b</w> 98
aus sage</w> 98
qu ad 98
co 2- 98
fe atures</w> 98
br a</w> 98
gan g 98
tra cking</w> 98
gro ssen</w> 98
viel es</w> 98
schi enen</w> 98
ide al</w> 98
sol ving</w> 98
cor n</w> 98
tin gs</w> 98
poin ted</w> 98
durch führen</w> 98
cur ve</w> 98
erinn erung</w> 98
tau cht</w> 98
religi onen</w> 98
cop y 98
prote cted</w> 98
pac ka 98
besi tzt</w> 98
top ic</w> 98
prot eine</w> 98
hen ry</w> 98
hü hn 98
inte gr 98
wü s 98
les sons</w> 98
schmer z 98
continu ed</w> 98
ulti mate</w> 98
jahrzehn t</w> 98
aktivi täten</w> 98
interpre tation</w> 98
erhö hen</w> 98
kab el</w> 98
rou te</w> 98
after noon</w> 98
hydro gen</w> 98
mista kes</w> 98
rü stung</w> 98
blas e</w> 98
geru fen</w> 98
travel ing</w> 98
ance stors</w> 98
ill ness</w> 98
gegensei tig</w> 98
sterb lichkeit</w> 98
occur red</w> 98
circum stances</w> 98
percent age</w> 98
lincol n</w> 98
a .</w> 97
r önt 97
l an</w> 97
g ün 97
f arb 97
1 1.</w> 97
er forsch 97
ch teten</w> 97
es ie</w> 97
re tt 97
re alen</w> 97
ma d</w> 97
ma x 97
ro cket</w> 97
be trieben</w> 97
as pi 97
le gte</w> 97
go ttes</w> 97
bi ke</w> 97
for mt</w> 97
sti cks</w> 97
sti mul 97
bo w</w> 97
fe yn 97
fro h</w> 97
fin gers</w> 97
über winden</w> 97
sc ore</w> 97
einfa ches</w> 97
gesch ni 97
lin ear</w> 97
ken ia</w> 97
cre ature</w> 97
20 - 97
che mo 97
rel ate</w> 97
spre cher</w> 97
of - 97
ag gressi 97
dire ctor</w> 97
flo wers</w> 97
glaub te</w> 97
bre ch 97
gesund heit 97
sü den</w> 97
vent ure</w> 97
amoun ts</w> 97
enor m</w> 97
mechan ical</w> 97
instru ments</w> 97
wohl stand</w> 97
geneti sche</w> 97
verwand elt</w> 97
disc ussion</w> 97
erd be 97
hur t</w> 97
collabor ation</w> 97
medizini schen</w> 97
fundament ally</w> 97
vermei den</w> 97
ozean e</w> 97
shir t</w> 97
schat ten</w> 97
gentle men</w> 97
pengu ins</w> 97
activi ties</w> 97
base ball</w> 97
mos qui 97
weih na 97
a pri 96
t liche</w> 96
e he</w> 96
e ars</w> 96
n d</w> 96
n ase</w> 96
c ence</w> 96
g and 96
f ed</w> 96
j ung</w> 96
j ury</w> 96
in her 96
ar z 96
ar es</w> 96
ein gesch 96
ma cy</w> 96
ver lan 96
le be</w> 96
sa v 96
ha m 96
lo gic</w> 96
la tionen</w> 96
sti on</w> 96
aus einander 96
co - 96
co ca 96
co ordin 96
man chen</w> 96
sin ging</w> 96
tre ating</w> 96
gesch aut</w> 96
fol genden</w> 96
pres ence</w> 96
qui et</w> 96
bli cken</w> 96
20 50</w> 96
sho o 96
fall ing</w> 96
zwei mal</w> 96
pf el</w> 96
clo sely</w> 96
econom ists</w> 96
kti ver</w> 96
eg gs</w> 96
krie ges</w> 96
ku gel</w> 96
colle ction</w> 96
exi sting</w> 96
edu cational</w> 96
versch wen 96
cl ing</w> 96
gele gen 96
expe c 96
liter ature</w> 96
liter atur</w> 96
interessan tes</w> 96
mehr heit</w> 96
zz a</w> 96
beri cht</w> 96
aspe ct</w> 96
kompli zier 96
vac cine</w> 96
electr onic</w> 96
transpor tation</w> 96
accu rate</w> 96
katastrop he</w> 96
kee ps</w> 96
debat te</w> 96
nive au</w> 96
frame work</w> 96
shang hai</w> 96
verg nü 96
l ant</w> 95
h of</w> 95
s ab 95
s hr 95
ch ert</w> 95
un usual</w> 95
al em</w> 95
ein stellung</w> 95
re co 95
ma ten</w> 95
ge holfen</w> 95
ver ne 95
de plo 95
ra ke 95
ol ds</w> 95
sa d 95
sa mple</w> 95
ha wai 95
ni k</w> 95
ent y</w> 95
gi g</w> 95
wei st</w> 95
po und</w> 95
fa ch</w> 95
ex act</w> 95
con gress</w> 95
sel s</w> 95
war tet</w> 95
bei bringen</w> 95
bes essen</w> 95
unter en</w> 95
min ate</w> 95
ander s 95
ten den</w> 95
spe ct 95
hu t</w> 95
las er</w> 95
stat ement</w> 95
ap p</w> 95
zä hlt</w> 95
durch zu 95
veränder te</w> 95
kor an</w> 95
brea king</w> 95
ähn lichen</w> 95
expla ined</w> 95
perfor ming</w> 95
zerstör ung</w> 95
enth alten</w> 95
enth ält</w> 95
risi ko 95
faszini ert</w> 95
sichti g</w> 95
gesprä che</w> 95
kontin ent</w> 95
comb ine</w> 95
behaup ten</w> 95
erleb nis</w> 95
besa gt</w> 95
drü cke</w> 95
geschen k</w> 95
surge on</w> 95
überrasch end</w> 95
spli t</w> 95
youn ger</w> 95
a vi 94
h ungen</w> 94
u pper</w> 94
s eins</w> 94
in zwischen</w> 94
in centi 94
er y</w> 94
er ror</w> 94
un - 94
un ruhi 94
el d</w> 94
au tori 94
ma cher</w> 94
ge fan 94
ver glichen</w> 94
wh el 94
le on 94
de cke</w> 94
wa ffe</w> 94
te sted</w> 94
bi ol 94
zu cker</w> 94
sti ll 94
and re 94
aus einander</w> 94
tt ed</w> 94
war tung</w> 94
her vor</w> 94
par ks</w> 94
chi ps</w> 94
ka meras</w> 94
des k</w> 94
gra y</w> 94
fr au 94
fun ding</w> 94
lin ked</w> 94
hand lung</w> 94
col or 94
coun ty</w> 94
ve ter 94
organ e</w> 94
che f</w> 94
bl ed</w> 94
län ge</w> 94
posi tiv</w> 94
organi sieren</w> 94
sig ns</w> 94
welt weiten</w> 94
sha ke</w> 94
kre b 94
sau ce</w> 94
exi stenz</w> 94
auto matisch</w> 94
lebens mittel</w> 94
zeich nung</w> 94
religi ons</w> 94
over whel 94
gebäu den</w> 94
gei st 94
änder ungen</w> 94
mana ger</w> 94
recor ds</w> 94
stär k 94
fortun ate</w> 94
respe kt</w> 94
konzentri ert</w> 94
enth usi 94
innova tionen</w> 94
smi th</w> 94
increas ed</w> 94
faszini erend</w> 94
klei dung</w> 94
wün schte</w> 94
bele u 94
musli m</w> 94
ursprün glich</w> 94
00 0- 94
veran stal 94
schlu g</w> 94
gewä hlt</w> 94
corre ct</w> 94
hero es</w> 94
seel e</w> 94
defen se</w> 94
ernsthaf t</w> 94
gebro chen</w> 94
empa thy</w> 94
eindeu tig</w> 94
i ds</w> 93
m all</w> 93
l ers</w> 93
h - 93
f i</w> 93
f on 93
w ände</w> 93
ch ol 93
en g</w> 93
ar ab</w> 93
ar mee</w> 93
li chte</w> 93
ti erten</w> 93
sch ein</w> 93
di an</w> 93
be treiben</w> 93
ver bren 93
as th 93
de di 93
te a</w> 93
hi p</w> 93
op tions</w> 93
ho li 93
ho ben</w> 93
tr at</w> 93
tr äumen</w> 93
war f</w> 93
auf geregt</w> 93
dar gestellt</w> 93
gh ten 93
sin ni 93
chan cen</w> 93
geb or 93
star ken</w> 93
fre ie</w> 93
19 .</w> 93
gew inn</w> 93
zeu g 93
tru ck</w> 93
mein te</w> 93
mati sche</w> 93
funk tionen</w> 93
irgend eine</w> 93
gemein samen</w> 93
whi st 93
sig ned</w> 93
dra matic</w> 93
sha me</w> 93
oper a 93
whe el 93
ama zon</w> 93
lehr e</w> 93
versch wunden</w> 93
perfe kte</w> 93
vari ation</w> 93
krei se</w> 93
micro bes</w> 93
aufge wachsen</w> 93
biologi sche</w> 93
dou bt</w> 93
elektri sche</w> 93
telef on 93
zy kl 93
ereig nis</w> 93
emissi onen</w> 93
rever se</w> 93
puzz le</w> 93
measu red</w> 93
musk eln</w> 93
21 st</w> 93
mittler weile</w> 93
oxyto cin</w> 93
meaning ful</w> 93
c able</w> 92
b ad 92
ä r</w> 92
in tri 92
in formi 92
er zieh 92
ti le</w> 92
au spro 92
re mind</w> 92
re main</w> 92
di ger</w> 92
ge däch 92
at u 92
ri sk 92
de fi 92
si x 92
da hinter</w> 92
zu geben</w> 92
zu sätzlich</w> 92
ta il 92
per form</w> 92
con stitu 92
aus lö 92
aus brei 92
co ok</w> 92
fe eding</w> 92
ger man</w> 92
ali smus</w> 92
tra fen</w> 92
kon sequenzen</w> 92
mer ken</w> 92
ev ening</w> 92
tro pi 92
hin aus 92
jo ke</w> 92
antwor tet</w> 92
physi kali 92
200 2</w> 92
funktioni erte</w> 92
cle an 92
basi erend</w> 92
tan zen</w> 92
billi onen</w> 92
out come</w> 92
fel der</w> 92
flie ge</w> 92
archite ct</w> 92
fig ures</w> 92
wes halb</w> 92
appro ach 92
entfer nung</w> 92
gol den</w> 92
psych ologie</w> 92
merk wür 92
mel o 92
cin es</w> 92
swi mming</w> 92
auth ority</w> 92
stron ger</w> 92
subje cts</w> 92
laun ch</w> 92
agen cy</w> 92
ingeni eure</w> 92
abstra ct</w> 92
arch ie</w> 92
vehi cles</w> 92
appli cations</w> 92
spek trum</w> 92
dec line</w> 92
corpor ate</w> 92
dea ths</w> 92
orche str 92
besor gt</w> 92
volu me</w> 92
brasili en</w> 92
alp hab 92
verbre chen</w> 92
bevölker ungs 92
repu tation</w> 92
k um 91
r ors</w> 91
r äumen</w> 91
e mi 91
y pt</w> 91
g ger 91
h m</w> 91
b ones</w> 91
3 , 91
3 3</w> 91
an nahme</w> 91
an schaut</w> 91
re ference</w> 91
sch ten</w> 91
ma gie</w> 91
ge fangen</w> 91
ver gewal 91
ha ften</w> 91
ne ar 91
te st 91
po cket</w> 91
aus gaben</w> 91
par asi 91
ger ing 91
lie fert</w> 91
fin ance</w> 91
dar stellung</w> 91
vor der 91
ka mer 91
viel mehr</w> 91
lin ge</w> 91
nach gedacht</w> 91
col a</w> 91
dri ves</w> 91
regi on 91
musi ker</w> 91
berei t 91
dru ckt</w> 91
vo gel</w> 91
stän dige</w> 91
prä zi 91
sha ped</w> 91
schlie ßt</w> 91
pop ul 91
archite cts</w> 91
bat terie</w> 91
super - 91
geri cht</w> 91
prei se</w> 91
tou ched</w> 91
mes sages</w> 91
änder ung</w> 91
recor ding</w> 91
cla im</w> 91
geschäf te</w> 91
für s</w> 91
kontrolli ert</w> 91
ski ll</w> 91
process ing</w> 91
plasti k</w> 91
neben bei</w> 91
köni g</w> 91
soli d</w> 91
lü gen</w> 91
interak tion</w> 91
wher ever</w> 91
hinzu fügen</w> 91
frank ly</w> 91
conser vation</w> 91
conclu sion</w> 91
conven tional</w> 91
paradig m</w> 91
virg ini 91
nom men</w> 91
nel son</w> 91
glü h 91
lifest yle</w> 91
apri l</w> 91
biol u 91
a y</w> 90
e ful</w> 90
d v 90
d ör 90
l . 90
5 0,000</w> 90
an stieg</w> 90
st a</w> 90
ma cht 90
ver brau 90
ver gleich 90
vi erte</w> 90
ent wur 90
pro - 90
me m 90
com ics</w> 90
zu ver 90
bo xes</w> 90
mor d</w> 90
man gel</w> 90
sh a</w> 90
mar ke</w> 90
fr ance</w> 90
stor y 90
schie ßen</w> 90
gener ated</w> 90
schein end</w> 90
besch rieben</w> 90
regi ons</w> 90
zusammen arbeiten</w> 90
physi ker</w> 90
zer o- 90
oni cs</w> 90
off enen</w> 90
bru st</w> 90
stad t 90
glück licher</w> 90
gri ppe</w> 90
äl teren</w> 90
gesam t 90
gesi chts</w> 90
nei ther</w> 90
199 0</w> 90
tou ri 90
schwe stern</w> 90
inclu de</w> 90
camp us</w> 90
aspe kte</w> 90
kauf te</w> 90
swe et</w> 90
männ chen</w> 90
effizi enz</w> 90
bö se</w> 90
zufä lli 90
exp and</w> 90
green house</w> 90
sprech end</w> 90
monit or</w> 90
concep ts</w> 90
horri ble</w> 90
clou ds</w> 90
platt form</w> 90
buchstab en</w> 90
von einander</w> 90
intern al</w> 90
matri x</w> 90
gemäl de</w> 90
ridi cul 90
d al</w> 89
l g</w> 89
l ength</w> 89
c tic</w> 89
h ung 89
b loo 89
0 , 89
w em</w> 89
in sur 89
in don 89
un ding</w> 89
ar ro 89
li ft</w> 89
el ed</w> 89
on en 89
be tre 89
ver tre 89
as s 89
ri sche</w> 89
le tzt</w> 89
ra w</w> 89
ha w 89
ni r 89
po l</w> 89
ru ss 89
do t</w> 89
wir eless</w> 89
aus ser 89
qu anten 89
än der</w> 89
br and 89
pi zza</w> 89
sh ment</w> 89
sen der</w> 89
ka tion</w> 89
fu els</w> 89
wä hlt</w> 89
über wäl 89
mon keys</w> 89
min us</w> 89
schi ld</w> 89
um fas 89
ken nen 89
comp la 89
pri son 89
ko hle</w> 89
peri o 89
wahr nehmen</w> 89
bl ö 89
regi me</w> 89
musi cal</w> 89
dis gu 89
clo thes</w> 89
wri ter</w> 89
kre di 89
dau er</w> 89
sou l</w> 89
u. s</w> 89
ähn liches</w> 89
rau b 89
behavi oral</w> 89
flü gel</w> 89
consi der 89
bemer kte</w> 89
mikro ben</w> 89
enga ged</w> 89
einge führt</w> 89
epi demie</w> 89
tie fen</w> 89
span n 89
verur sachen</w> 89
journ al</w> 89
diagno sti 89
demon stration</w> 89
ferti li 89
russi a</w> 89
fok us</w> 89
rema ins</w> 89
embar ras 89
verblü ff 89
dile mma</w> 89
tsun ami</w> 89
biolu mines 89
k is 88
r wand 88
d einer</w> 88
d ome 88
g aller 88
s l 88
v ä 88
4 8</w> 88
4 7</w> 88
er ic</w> 88
an geht</w> 88
an atom 88
an lagen</w> 88
an scheinend</w> 88
un ken</w> 88
st or</w> 88
ti tan</w> 88
sch r 88
be trie 88
ver mitt 88
bu tton</w> 88
der selben</w> 88
la tin</w> 88
su s</w> 88
ex cell 88
all - 88
sel ten 88
fe ature</w> 88
par k 88
pi le</w> 88
tra ge</w> 88
ber ge</w> 88
ber ück 88
some what</w> 88
schi chten</w> 88
hei l 88
tä glichen</w> 88
fun ctions</w> 88
fahr zeuge</w> 88
leben de</w> 88
schein bar</w> 88
glo be</w> 88
mitt els</w> 88
kti eren</w> 88
techni ken</w> 88
lang samer</w> 88
spezi ell</w> 88
bin den</w> 88
challen ging</w> 88
gol d 88
zentr en</w> 88
mil ch</w> 88
fanta stische</w> 88
bun des 88
wol ken</w> 88
od d</w> 88
resi stance</w> 88
sele ction</w> 88
enter tainment</w> 88
gefän gni 88
comb ined</w> 88
conser va 88
vorberei tet</w> 88
mill enni 88
attemp t</w> 88
participa te</w> 88
nieman den</w> 88
genü gend</w> 88
hie ß</w> 88
indon esi 88
berück sichti 88
k ev 87
k äf 87
k espe 87
s no 87
s now</w> 87
el - 87
sch - 87
de cre 87
sp ri 87
wa hlen</w> 87
op er</w> 87
com e 87
zu frieden</w> 87
sti ft</w> 87
con cre 87
res on 87
br un 87
par king</w> 87
il ing</w> 87
über ein 87
unter wegs</w> 87
sc ared</w> 87
tro ck 87
star ben</w> 87
gesch o 87
arbei tung</w> 87
mb ur 87
pri ces</w> 87
plan en</w> 87
ko ordin 87
mit nehmen</w> 87
hand le</w> 87
är a</w> 87
kr ä 87
compu tern</w> 87
car ol 87
am ine</w> 87
bri an</w> 87
physi cally</w> 87
ner vö 87
cho col 87
kü che</w> 87
sha kespe 87
bor ing</w> 87
blu men</w> 87
spr in 87
techni que</w> 87
fle w</w> 87
bur g</w> 87
jen er</w> 87
stör ungen</w> 87
del hi</w> 87
mechan i 87
mechan ism</w> 87
clin ic</w> 87
gewis ser</w> 87
ath le 87
symbo li 87
algorith ms</w> 87
programmi eren</w> 87
well- being</w> 87
compon ent</w> 87
wom it</w> 87
ägyp ten</w> 87
narra tive</w> 87
lebenser wartung</w> 87
expedi tion</w> 87
phr ase</w> 87
staf f</w> 87
k tivität</w> 86
d ding</w> 86
m s 86
y al</w> 86
h unde</w> 86
u tili 86
b st</w> 86
b eln</w> 86
b y- 86
s the 86
ti tle</w> 86
di ck</w> 86
be e</w> 86
ver folgt</w> 86
ha i 86
ne o 86
ac compli 86
bu sy</w> 86
la dung</w> 86
me ga 86
me tern</w> 86
me tab 86
mu mb 86
ta ges 86
den se</w> 86
ru pt</w> 86
wir ft</w> 86
zi erung</w> 86
et c.</w> 86
dar stellt</w> 86
din ger</w> 86
um geben</w> 86
mar ath 86
dan cing</w> 86
lei hen</w> 86
sc or 86
star tet</w> 86
pla te</w> 86
dat es</w> 86
kan di 86
berei ten</w> 86
lar ly</w> 86
lar gely</w> 86
mal a 86
hy bri 86
vie ws</w> 86
eg ypt</w> 86
ans wer 86
flie ßen</w> 86
10 - 86
identi cal</w> 86
wonder ed</w> 86
offi zi 86
schä tzung</w> 86
interessan ter</w> 86
pal m</w> 86
ox id</w> 86
instru mente</w> 86
equ ation</w> 86
mr i</w> 86
dete ct</w> 86
tas mani 86
sustain ability</w> 86
jahrzehn ten</w> 86
bedro hung</w> 86
distribu ted</w> 86
lok ale</w> 86
umzu gehen</w> 86
occu r</w> 86
classi c</w> 86
beteili gt</w> 86
verschmu tzung</w> 86
ernä hren</w> 86
k nee</w> 85
y o</w> 85
c and 85
f ted</w> 85
b art</w> 85
0 . 85
w un 85
5 5</w> 85
in f 85
an gu 85
or a</w> 85
ein geladen</w> 85
sch äd 85
ma mm 85
ge dan 85
ge dicht</w> 85
ver mi 85
no v 85
ur sache</w> 85
ha ie</w> 85
lo sigkeit</w> 85
te pp 85
fi sher 85
bi gkeit</w> 85
na mi 85
su ch 85
ff s</w> 85
ges u 85
pe ac 85
ru he</w> 85
con stant</w> 85
aus gesetzt</w> 85
gl u 85
du l 85
ger et 85
dr auf</w> 85
dr ingen</w> 85
fr ö 85
neu tr 85
ad mit</w> 85
ele fan 85
indi schen</w> 85
thre at 85
bri cht</w> 85
wal ks</w> 85
bro o 85
dro gen</w> 85
trans formed</w> 85
whe el</w> 85
gesa mmelt</w> 85
sicht bar</w> 85
anzu sehen</w> 85
wand eln</w> 85
power s</w> 85
äl tere</w> 85
over all</w> 85
sli des</w> 85
defini ert</w> 85
visu elle</w> 85
poten tially</w> 85
argu ments</w> 85
syn thetic</w> 85
fur ni 85
gol f 85
steu er 85
steu ert</w> 85
graphi cs</w> 85
kapi tali 85
caus ing</w> 85
bran che</w> 85
sonnen licht</w> 85
maß nahmen</w> 85
komplex en</w> 85
algorith men</w> 85
kümm ert</w> 85
plasti k 85
rele ased</w> 85
kosten los</w> 85
dep end</w> 85
john son</w> 85
resol ution</w> 85
anima tion</w> 85
obs essed</w> 85
pingu ine</w> 85
victi ms</w> 85
stif tung</w> 85
king dom</w> 85
feyn man</w> 85
e ds</w> 84
c up</w> 84
h ten</w> 84
3 0- 84
7 0s</w> 84
en zen</w> 84
un belie 84
ei er</w> 84
st rea 84
re ment</w> 84
re move</w> 84
re gar 84
ro ot</w> 84
be achten</w> 84
be wohner</w> 84
be unruhi 84
de stin 84
se chs 84
lo vely</w> 84
ne anderth 84
pro pa 84
da ch 84
tz te</w> 84
wei sheit</w> 84
we ak</w> 84
wel ten</w> 84
gr ass</w> 84
tt eln</w> 84
ber gen</w> 84
spi der</w> 84
sen dlich</w> 84
hei mat 84
sc ar 84
em br 84
ad oles 84
hand el 84
19 th</w> 84
meri ka</w> 84
sur ely</w> 84
afri kaner</w> 84
arti gen</w> 84
che ck 84
win det</w> 84
chin esen</w> 84
besch ü 84
dru cken</w> 84
hö here</w> 84
fal schen</w> 84
schla f 84
out put</w> 84
verwen dung</w> 84
zo om</w> 84
wissenschaft lern</w> 84
mini steri 84
dy s 84
gesam t</w> 84
hoff nungs 84
schwieri ge</w> 84
flug zeuge</w> 84
schwar z</w> 84
biologi schen</w> 84
drei dimension 84
fortun e</w> 84
geneti schen</w> 84
limi ts</w> 84
grundle genden</w> 84
worl ds</w> 84
intui tive</w> 84
jahrzehn te</w> 84
vorstell ungskraft</w> 84
intervie ws</w> 84
four - 84
mc don 84
deter mine</w> 84
fei ern</w> 84
leu chten</w> 84
ereig nisse</w> 84
insi ght</w> 84
conven i 84
schlus sendlich</w> 84
circu it</w> 84
kompon enten</w> 84
trauri g</w> 84
appreci ate</w> 84
philosoph y</w> 84
chromo som 84
agre ed</w> 84
pazi fi 84
mäu se</w> 84
shoul der</w> 84
zuschau er</w> 84
sandwi ch</w> 84
villa ges</w> 84
virgini a</w> 84
concre te</w> 84
metab oli 84
d einem</w> 83
c m</w> 83
g keits 83
s as</w> 83
6 0s</w> 83
in k</w> 83
an nt</w> 83
un end 83
un known</w> 83
st .</w> 83
ein schrän 83
sch lau 83
di ction 83
ma hl 83
be enden</w> 83
be zeichnet</w> 83
be zeichnen</w> 83
ver liert</w> 83
ri sing</w> 83
de gra 83
mi tzu 83
ac tors</w> 83
ter t</w> 83
ter min 83
ent täu 83
te ur</w> 83
fi ction</w> 83
tz ten</w> 83
bi bel</w> 83
na hen</w> 83
su chte</w> 83
po em</w> 83
ex por 83
do zen</w> 83
co w</w> 83
du str 83
pa pers</w> 83
rea ching</w> 83
sta yed</w> 83
wo ods</w> 83
ph ant 83
fac ed</w> 83
em bed 83
sk i</w> 83
loo p</w> 83
desig n- 83
dre hte</w> 83
forma tion</w> 83
letz tlich</w> 83
mei ster 83
arti g</w> 83
cent u 83
eigen schaft</w> 83
län dlichen</w> 83
stri ert</w> 83
mitt ei 83
gegen den</w> 83
dire ctions</w> 83
oper ationen</w> 83
brea the</w> 83
colle cted</w> 83
wunder baren</w> 83
flie gt</w> 83
spezi elle</w> 83
chemi sche</w> 83
cr ash 83
zentr ale</w> 83
hinter lassen</w> 83
organis m</w> 83
span ne</w> 83
tief er</w> 83
wör tlich</w> 83
entdeck ungen</w> 83
geor d 83
isra eli 83
len ken</w> 83
veröffent lichen</w> 83
coura ge</w> 83
stopp en</w> 83
mäch tig</w> 83
gelan gt</w> 83
dynami k</w> 83
ethi op 83
ligh ting</w> 83
quar ter</w> 83
schlä ge</w> 83
nachbar schaft</w> 83
divi ded</w> 83
requi red</w> 83
scan ner</w> 83
militä r</w> 83
mand ela</w> 83
erneu er 83
öko system</w> 83
instal lation</w> 83
astero id</w> 83
infini te</w> 83
erkrank ungen</w> 83
gelei tet</w> 83
prop he 83
embra ce</w> 83
bibliothe k</w> 83
dir ty</w> 83
gelegen heiten</w> 83
dustr ie</w> 83
t all</w> 82
t ja</w> 82
m art</w> 82
g eren</w> 82
h ong</w> 82
f are</w> 82
f ts 82
b ars</w> 82
b end</w> 82
1 000</w> 82
3 6</w> 82
9 / 82
th un 82
in fr 82
er zeu 82
er hielt</w> 82
ch el</w> 82
en nen</w> 82
ti ll</w> 82
el ing</w> 82
ein st</w> 82
re form</w> 82
re zep 82
ab ed</w> 82
no where</w> 82
pro po 82
wor t 82
ci sm</w> 82
den sity</w> 82
po t</w> 82
bo om</w> 82
ja zz</w> 82
gan gs 82
sh ell</w> 82
sta hl</w> 82
sta dium</w> 82
des per 82
kon g</w> 82
mon ter 82
ir on</w> 82
um ständen</w> 82
lei chter</w> 82
mü n 82
pas sen 82
fun ctional</w> 82
pre gnant</w> 82
ak tion</w> 82
kr ab 82
kan sas</w> 82
afri cans</w> 82
scho ck 82
cri cket</w> 82
interest ingly</w> 82
prin ting</w> 82
cho se</w> 82
conne ct 82
conne cting</w> 82
wär me</w> 82
mathemati ker</w> 82
resul tate</w> 82
besonder en</w> 82
cat s</w> 82
mach st</w> 82
redu ziert</w> 82
syn chroni 82
dun kel</w> 82
überra schung</w> 82
inv ent</w> 82
trin si 82
shu t</w> 82
kultur elle</w> 82
säu ge 82
blä tter</w> 82
dolph ins</w> 82
wurz eln</w> 82
klassen zimmer</w> 82
eleph ant</w> 82
perman ent</w> 82
dritt ens</w> 82
celebra te</w> 82
habit at</w> 82
rene w 82
a . 81
a mi 81
p f</w> 81
o besi 81
e sten</w> 81
e ye 81
n ac 81
g ged</w> 81
z ess</w> 81
er wi 81
an hän 81
ch art</w> 81
en able</w> 81
st est</w> 81
st elli 81
au tor</w> 81
re tin 81
di gni 81
ge tragen</w> 81
wh ale</w> 81
se ti</w> 81
sp uren</w> 81
pro of</w> 81
hi de</w> 81
me me</w> 81
bi as</w> 81
aus rüstung</w> 81
ste ck 81
du st</w> 81
par ent</w> 81
hal f- 81
rea ds</w> 81
bes ei 81
sh ri 81
sta mm</w> 81
zei traum</w> 81
ben ja 81
gra ms</w> 81
fu hren</w> 81
mar i 81
tal en</w> 81
ob eren</w> 81
tä tigkeit</w> 81
pas sing</w> 81
hä r 81
ce ment</w> 81
jo ined</w> 81
20 ,000</w> 81
wichti ges</w> 81
scho ol 81
leben dig</w> 81
hö ri 81
antwor tete</w> 81
dro gen 81
gegen über 81
econom ies</w> 81
voll es</w> 81
pra x 81
flo wer</w> 81
studi um</w> 81
hou sing</w> 81
wunder schöne</w> 81
exi sted</w> 81
gleich ung</w> 81
sü ß 81
verschieden er</w> 81
kli ma</w> 81
interessan ten</w> 81
nan nten</w> 81
psych ological</w> 81
pflan ze</w> 81
consu mers</w> 81
schwe den</w> 81
verste ckt</w> 81
care ful</w> 81
symme try</w> 81
fres sen</w> 81
selt same</w> 81
teu fel</w> 81
klini k</w> 81
christ mas</w> 81
erneu t</w> 81
pfer d</w> 81
ries en 81
zw ungen</w> 81
begeg nen</w> 81
disor der</w> 81
disor ders</w> 81
extin ct</w> 81
fif th</w> 81
simpli city</w> 81
vietna m</w> 81
kari kat 81
tox ic</w> 81
ballo on</w> 81
geburt stag</w> 81
furni ture</w> 81
a min 80
r es</w> 80
i con 80
m ie</w> 80
g ging</w> 80
g s- 80
h s</w> 80
u n</w> 80
z enz</w> 80
ch arity</w> 80
en a</w> 80
ti fi 80
ti tel 80
re al 80
ab ent 80
ge teilt</w> 80
le hnen</w> 80
no ten</w> 80
ha fen</w> 80
lo ses</w> 80
op posed</w> 80
gi le</w> 80
bi ble</w> 80
bi ologen</w> 80
wei ß 80
for mul 80
po ses</w> 80
all gemein 80
än g 80
kom mer 80
inter active</w> 80
par tei 80
tra gi 80
vor an 80
vor gang</w> 80
gro ws</w> 80
sta tions</w> 80
sy nap 80
ben den</w> 80
fu r</w> 80
min ing</w> 80
ander erseits</w> 80
sk raft</w> 80
ad vice</w> 80
medi zin 80
letz ter</w> 80
proje kten</w> 80
verb un 80
bedeu tete</w> 80
communi cations</w> 80
spr ung</w> 80
techni schen</w> 80
spä ten</w> 80
reme mber 80
kontro ll 80
gesi chts 80
pac ken</w> 80
nation ale</w> 80
geni eßen</w> 80
top - 80
inten se</w> 80
meas uring</w> 80
multi pli 80
mehr eren</w> 80
rat et</w> 80
energi ever 80
clas ses</w> 80
exper t</w> 80
fru cht 80
sever e</w> 80
besu chte</w> 80
gewal t 80
disc us 80
veröffent lich 80
urspr ung</w> 80
tren nen</w> 80
dynami cs</w> 80
berech nen</w> 80
wün sche</w> 80
ökon omen</w> 80
ins gesamt</w> 80
ast oni 80
frank reich</w> 80
nap p</w> 80
sogenan nte</w> 80
ves sels</w> 80
plä tze</w> 80
chap ter</w> 80
microscop e</w> 80
phosp hor 80
erwär mung</w> 80
abra ham</w> 80
echtz eit</w> 80
copy right</w> 80
shoo ting</w> 80
carol ina</w> 80
geret tet</w> 80
obesi ty</w> 80
k alt</w> 79
r ar 79
e . 79
i . 79
y ment</w> 79
g ant</w> 79
g ger</w> 79
g ments</w> 79
- like</w> 79
s i</w> 79
s que 79
3 d- 79
z enti 79
er adi 79
an xi 79
an passen</w> 79
st rie 79
or ing</w> 79
re com 79
sch rieben</w> 79
di ges</w> 79
ab gesehen</w> 79
ma ted</w> 79
ro o 79
be troffen</w> 79
at er 79
at ur 79
ri a</w> 79
si de 79
lo cked</w> 79
ter ror</w> 79
to wer</w> 79
do ors</w> 79
co ch 79
ste te</w> 79
fe min 79
bei des</w> 79
mer n</w> 79
mon key</w> 79
min der 79
stru ck</w> 79
univer s 79
sor g 79
zwei fel</w> 79
lau gh</w> 79
sau ber 79
yor ker</w> 79
bio - 79
provi ding</w> 79
pain tings</w> 79
pol ar</w> 79
spo ts</w> 79
equ ally</w> 79
conver sations</w> 79
year- olds</w> 79
imm une</w> 79
certain ty</w> 79
swe den</w> 79
vergan genen</w> 79
elektri schen</w> 79
depen ding</w> 79
morali schen</w> 79
erhö ht</w> 79
geh end</w> 79
musli ms</w> 79
gü l 79
stir bt</w> 79
betr ü 79
hell o</w> 79
sculp ture</w> 79
commit ment</w> 79
augu st</w> 79
slu ms</w> 79
sz ene</w> 79
konser va 79
dunkel heit</w> 79
schick sal</w> 79
incenti ves</w> 79
geist es 79
mumb ai</w> 79
k ein 78
p uni 78
o ' 78
m ess</w> 78
b ären</w> 78
j ones</w> 78
j enen</w> 78
7 2</w> 78
er ie</w> 78
er geben</w> 78
un ver 78
li mit</w> 78
li ver</w> 78
ti ed</w> 78
re gener 78
ge brauch</w> 78
ver sorgen</w> 78
ver brauch</w> 78
om a</w> 78
wh ales</w> 78
ri ce</w> 78
ri ffe</w> 78
le op 78
vi ta 78
bi ge</w> 78
ta mi 78
ex ecu 78
kö pfe</w> 78
bo ards</w> 78
mp f 78
aus ch</w> 78
aus wahl</w> 78
ju dge</w> 78
bei gebracht</w> 78
ka tionen</w> 78
mer kt</w> 78
gra mme</w> 78
über tra 78
min d 78
mar ch</w> 78
under water</w> 78
hei ß</w> 78
hei ght</w> 78
dan ger</w> 78
neu igkeiten</w> 78
pres ented</w> 78
19 0 78
brin ge</w> 78
jo se 78
bedeu t 78
pf lege</w> 78
irgend einem</w> 78
e- mail</w> 78
can di 78
organi siert</w> 78
my stery</w> 78
asi de</w> 78
fal se</w> 78
trans late</w> 78
econom ist</w> 78
out comes</w> 78
flo ating</w> 78
studi ert</w> 78
schle chtes</w> 78
brea thing</w> 78
zurück kehren</w> 78
jen seits</w> 78
allo wing</w> 78
frie d 78
berü hren</w> 78
pol ari 78
spo ken</w> 78
bom be</w> 78
leg acy</w> 78
hig gs</w> 78
hen sweise</w> 78
dou b 78
clin ton</w> 78
anwen dungen</w> 78
hervor ra 78
diagno se</w> 78
hinder t</w> 78
qua ke</w> 78
spie gel 78
verdi ent</w> 78
inspiri eren</w> 78
assu me</w> 78
präsi denten</w> 78
schaff ung</w> 78
surro unded</w> 78
bemerkens wert</w> 78
förder t</w> 78
symptom s</w> 78
ene my</w> 78
fett lei 78
offer ed</w> 78
acc essi 78
dunkl en</w> 78
potenzi al</w> 78
philan throp 78
rönt gen 78
sav ings</w> 78
vergnü gen</w> 78
russ land</w> 78
gedan ken 78
embed ded</w> 78
k napp</w> 77
a wes 77
a chtung</w> 77
p c</w> 77
p al</w> 77
d .</w> 77
l k 77
y ard</w> 77
b low</w> 77
s ession</w> 77
z .</w> 77
an wäl 77
en ding</w> 77
ei gh 77
ti m</w> 77
or g</w> 77
ab er 77
ro man</w> 77
ge worfen</w> 77
ge trennt</w> 77
at tribu 77
sa ßen</w> 77
lo go</w> 77
mi ke</w> 77
sp reading</w> 77
da zwischen</w> 77
com modi 77
zu fall</w> 77
tu ri 77
ta x</w> 77
sti ck 77
her unter</w> 77
ali ties</w> 77
rea ktionen</w> 77
vor hin</w> 77
vor schlag</w> 77
vor sichtig</w> 77
sy mb 77
kon ver 77
uni ts</w> 77
wo zu</w> 77
viel fäl 77
um so</w> 77
fac ial</w> 77
hei len</w> 77
ob stac 77
str an 77
hin blick</w> 77
sk u 77
lin der</w> 77
pres cri 77
desig n 77
coun cil</w> 77
car ried</w> 77
teil ten</w> 77
scha ch 77
fil men</w> 77
pun kten</w> 77
parti cle</w> 77
incre ases</w> 77
welt krieg</w> 77
cur ri 77
glaub ten</w> 77
inno v 77
sicht weise</w> 77
kil ler</w> 77
auto matically</w> 77
lebens mittel 77
flie ßt</w> 77
gri ffen</w> 77
high way</w> 77
nei gen</w> 77
offen sicht 77
inten sive</w> 77
gän ge</w> 77
repres ented</w> 77
grand father</w> 77
belo hnung</w> 77
wol ke</w> 77
beru f</w> 77
computer - 77
wäl der</w> 77
drin king</w> 77
smo ke</w> 77
unge heu 77
tele phone</w> 77
roman tic</w> 77
kohlen stoff</w> 77
divi de</w> 77
contra st</w> 77
chinesi schen</w> 77
scri pt</w> 77
disappe ar</w> 77
aktu elle</w> 77
atlan tic</w> 77
attac ks</w> 77
dio xide</w> 77
impli cations</w> 77
portra it</w> 77
seas on</w> 77
poor est</w> 77
expan sion</w> 77
teilneh mer</w> 77
konfron tiert</w> 77
tane ously</w> 77
feder al</w> 77
rwand a</w> 77
nov ember</w> 77
k nie</w> 76
a partment</w> 76
r um</w> 76
e y 76
i b 76
c it</w> 76
g le 76
h assen</w> 76
w ein</w> 76
w right</w> 76
an wes 76
an fän 76
sch er 76
sch were</w> 76
di ents</w> 76
ge tr 76
be herr 76
ver sich 76
as sozi 76
mi th 76
ent - 76
ho st</w> 76
for dern</w> 76
ta tional</w> 76
ges unde</w> 76
wer be 76
ex o 76
ex tent</w> 76
wel come</w> 76
gr un 76
aus machen</w> 76
tt aus 76
pl äne</w> 76
her an</w> 76
inter essen</w> 76
spi ritual</w> 76
kon zer 76
um - 76
mar ks</w> 76
hei raten</w> 76
sc ra 76
fun ded</w> 76
pre ce 76
fl äch 76
tat ing</w> 76
dat ab 76
mit tag</w> 76
ari um</w> 76
ant a</w> 76
fri ghten 76
im men 76
hö he 76
secon dly</w> 76
ft - 76
gefü hl 76
dra matically</w> 76
mis st</w> 76
emp finden</w> 76
rela tions</w> 76
cha o 76
wunder volle</w> 76
grün dete</w> 76
anti ci 76
wieder hol 76
poten ti 76
cr y 76
pac kt</w> 76
interessan terweise</w> 76
ehr e</w> 76
lat est</w> 76
appe ars</w> 76
strei ten</w> 76
she ep</w> 76
depen dent</w> 76
figu r</w> 76
tas ks</w> 76
explor ing</w> 76
winzi g</w> 76
arab ischen</w> 76
kohlen stoff 76
preci sely</w> 76
psychi atri 76
außergewöhn lich</w> 76
disappe ared</w> 76
blas en</w> 76
geru ch</w> 76
strategi en</w> 76
sco tt</w> 76
appar ently</w> 76
entscheiden d</w> 76
stimu lation</w> 76
sugge sts</w> 76
infi ziert</w> 76
gemü se</w> 76
zuneh mend</w> 76
geschni tten</w> 76
leon ardo</w> 76
chocol ate</w> 76
9/ 11</w> 76
kommer zi 76
a gr 75
i di 75
m n</w> 75
m ously</w> 75
u e 75
b - 75
b ie</w> 75
v is</w> 75
in ts</w> 75
an spru 75
al tet</w> 75
wi der</w> 75
ro cks</w> 75
be greifen</w> 75
be wirken</w> 75
be wahren</w> 75
ver rin 75
ha are</w> 75
mi es</w> 75
sp enden</w> 75
ent en 75
pro vin 75
we tter</w> 75
per su 75
ru sh</w> 75
do od 75
wel traum</w> 75
tt i</w> 75
gro ss</w> 75
prob ability</w> 75
ev alu 75
geb unden</w> 75
sc ary</w> 75
sk et 75
plan ung</w> 75
scho kol 75
it z</w> 75
gemein nütz 75
physi sche</w> 75
char lie</w> 75
kti s</w> 75
reas on 75
bor der</w> 75
zeich nete</w> 75
govern ance</w> 75
fle der 75
institu t</w> 75
intelli gent 75
199 9</w> 75
provi ded</w> 75
pain ful</w> 75
investi ert</w> 75
orig in</w> 75
sil ence</w> 75
eli te</w> 75
back wards</w> 75
erken nung</w> 75
appe ared</w> 75
enter ed</w> 75
proper ly</w> 75
ingeni eur 75
fein d</w> 75
rais ing</w> 75
after wards</w> 75
appli cation</w> 75
foot ball</w> 75
main ly</w> 75
emotion ale</w> 75
flüssi gkeit</w> 75
gran ted</w> 75
einfach heit</w> 75
eigent liche</w> 75
flexi ble</w> 75
carto on</w> 75
verbesser ung</w> 75
atta ched</w> 75
auti sm</w> 75
happi er</w> 75
zufrieden heit</w> 75
gand hi</w> 75
reco very</w> 75
andre w</w> 75
gesu cht</w> 75
centu ries</w> 75
k einem</w> 74
a kt</w> 74
t än 74
t eller</w> 74
y u 74
h üb 74
s ungs 74
3 50</w> 74
5 0.000</w> 74
ö s</w> 74
in ch</w> 74
in klu 74
er fassen</w> 74
ch ens</w> 74
en cing</w> 74
un expected</w> 74
re je 74
re cher 74
re plac 74
re view</w> 74
di en</w> 74
ma ße</w> 74
be er</w> 74
om et 74
de ck 74
si x- 74
mi sche</w> 74
wa sch 74
bi cycle</w> 74
ho her</w> 74
wei ls</w> 74
ta i 74
to es</w> 74
gu il 74
ste ven</w> 74
ste hung</w> 74
pu shing</w> 74
ali sten</w> 74
dar win 74
ber k 74
vor tra 74
vor träge</w> 74
ben s</w> 74
fo ie</w> 74
über setzen</w> 74
sin ga 74
geb ü 74
hin gegen</w> 74
pre fer</w> 74
hand ys</w> 74
ster eo 74
fahr zeug</w> 74
cor respon 74
wan ting</w> 74
sho ck</w> 74
stra fe</w> 74
musi kali 74
stand s 74
posi tiven</w> 74
organi ze</w> 74
kt oni 74
hunder ttaus 74
ang riff</w> 74
erinn erungen</w> 74
fron tal</w> 74
zurück gehen</w> 74
cy cles</w> 74
tau schen</w> 74
wieder holen</w> 74
inspi ring</w> 74
kat ze</w> 74
pur ch 74
mechan ismus</w> 74
fern se 74
krea tive</w> 74
cla y</w> 74
besu cht</w> 74
verrück te</w> 74
erwä hnen</w> 74
virtu ally</w> 74
x- ray</w> 74
berech nungen</w> 74
winzi gen</w> 74
optimi stic</w> 74
schlä gt</w> 74
ful l- 74
toi let</w> 74
main tain</w> 74
erfü ll 74
höch sten</w> 74
destro yed</w> 74
kreis lauf</w> 74
neugi eri 74
zwin gen</w> 74
adverti sing</w> 74
bizar re</w> 74
langweili g</w> 74
exhibi tion</w> 74
spect ac 74
käf er</w> 74
curri cul 74
k ru 73
a is 73
t arian</w> 73
d ler</w> 73
i er 73
h eren</w> 73
u h</w> 73
u es</w> 73
w je 73
3 7</w> 73
z i</w> 73
an cy</w> 73
al ph 73
al tern</w> 73
li ke 73
ti les</w> 73
re pair</w> 73
ma tion</w> 73
ge bildet</w> 73
be kämpfen</w> 73
at oren</w> 73
le o</w> 73
le tting</w> 73
ur ban 73
se ed</w> 73
se cure</w> 73
vi eren</w> 73
fi ber</w> 73
wor ker</w> 73
bi en 73
ho tel 73
üb ung</w> 73
je weils</w> 73
den selben</w> 73
kön ne</w> 73
co s 73
co des</w> 73
so wje 73
fe tt</w> 73
fro zen</w> 73
pi pel 73
ali sts</w> 73
bes itz</w> 73
stor en</w> 73
stor es</w> 73
sc ans</w> 73
pre vent 73
ad mi 73
bra in 73
gew ann</w> 73
tru cks</w> 73
schei tern</w> 73
char akteri 73
grei ft</w> 73
edu cated</w> 73
fig uring</w> 73
erklär te</w> 73
audi o</w> 73
syn thesi 73
erwar tungen</w> 73
soft war 73
gewöhn t</w> 73
investi tionen</w> 73
hea ven</w> 73
dom e</w> 73
abhängi gkeit</w> 73
krea tiven</w> 73
recogni tion</w> 73
recogni zed</w> 73
ada pt</w> 73
isla mic</w> 73
foo ds</w> 73
tun nel</w> 73
memor ies</w> 73
häu fi 73
frequ ency</w> 73
destro y</w> 73
acade mic</w> 73
achiev ed</w> 73
philosoph ie</w> 73
symptom e</w> 73
key board</w> 73
robu st</w> 73
scrat ch</w> 73
come dy</w> 73
shakespe are</w> 73
digni ty</w> 73
benja min</w> 73
awes ome</w> 73
p ace</w> 72
t ches</w> 72
r i</w> 72
r on</w> 72
i den</w> 72
n gos</w> 72
c ates</w> 72
v ei 72
j h</w> 72
in ger</w> 72
er schein 72
an as</w> 72
an gry</w> 72
st eigen 72
es ch 72
ti se</w> 72
el ine</w> 72
wi s</w> 72
ein heiten</w> 72
di ving</w> 72
di stant</w> 72
ab en 72
ro ver</w> 72
ri c</w> 72
no ch 72
de ad 72
sa cre 72
sp ur</w> 72
der - 72
hi re</w> 72
da y 72
zu gleich</w> 72
sti sches</w> 72
do ktor 72
con go</w> 72
he mi 72
rei cht 72
rei cher</w> 72
sen sor</w> 72
ka sten</w> 72
jahr es 72
wo chen 72
mon ster</w> 72
stu fen</w> 72
min ation</w> 72
schi ckte</w> 72
ten - 72
sin s</w> 72
sk r 72
sk ali 72
hä ss 72
ever est</w> 72
ko st 72
enti al</w> 72
fas ern</w> 72
schö ner</w> 72
ven ess</w> 72
my th 72
gefü llt</w> 72
dra wn</w> 72
bal an 72
stre cke</w> 72
effe kte</w> 72
bel on 72
off ene</w> 72
ans ä 72
contro lling</w> 72
jun e</w> 72
versch windet</w> 72
popu lations</w> 72
wand els</w> 72
bezi r 72
visu ellen</w> 72
cir ca</w> 72
cr ying</w> 72
nation alen</w> 72
extra ct</w> 72
pal est 72
invol ves</w> 72
organis mus</w> 72
new ton</w> 72
strei t 72
pin k</w> 72
she et</w> 72
amon gst</w> 72
head ed</w> 72
beschrei bt</w> 72
frequ enz</w> 72
denk weise</w> 72
heli um</w> 72
erfü llen</w> 72
identifi zieren</w> 72
sogenan nten</w> 72
calcu late</w> 72
sahar a</w> 72
speak ers</w> 72
dialo g</w> 72
emergen cy</w> 72
fix ed</w> 72
analysi eren</w> 72
tumor s</w> 72
licen se</w> 72
so- called</w> 72
erforsch t</w> 72
nervö s</w> 72
elefan ten</w> 72
monter ey</w> 72
accessi ble</w> 72
alph a</w> 72
t um</w> 71
d al 71
i el</w> 71
n els</w> 71
c ash</w> 71
s zen 71
1 - 71
in trinsi 71
an en</w> 71
an gesichts</w> 71
ch est</w> 71
or bi 71
sch erweise</w> 71
di stan 71
ro se</w> 71
be have</w> 71
om - 71
si tze</w> 71
sa mples</w> 71
ha mbur 71
ac u 71
sp ani 71
te am 71
fü ße</w> 71
hab i 71
zu zu 71
su ffer</w> 71
mu tation</w> 71
je t</w> 71
ru b 71
fa che</w> 71
sti lle</w> 71
men de</w> 71
con stra 71
aus nahme</w> 71
aus drücken</w> 71
he m 71
ste phen</w> 71
pl enty</w> 71
et t</w> 71
her self</w> 71
par kin 71
ger aten</w> 71
tra l</w> 71
il and</w> 71
tri vi 71
lei tung</w> 71
hin auf</w> 71
hin unter</w> 71
sam es</w> 71
produ ctivity</w> 71
ko h 71
ari th 71
jo shu 71
bar rel</w> 71
eig ung</w> 71
ment ally</w> 71
funk tion 71
har m</w> 71
har dly</w> 71
hö heren</w> 71
irgend welche</w> 71
flu id</w> 71
physi schen</w> 71
ven e 71
welt bevölkerung</w> 71
emp ire</w> 71
indu strie 71
trans fer</w> 71
benu tze</w> 71
techni sche</w> 71
flo g</w> 71
doll ar- 71
brea ks</w> 71
ausge geben</w> 71
inspi re</w> 71
krei sen</w> 71
redu ction</w> 71
offi cial</w> 71
syn the 71
zentr al 71
air port</w> 71
curi osity</w> 71
hun ger 71
epi demi 71
proto type</w> 71
impro vement</w> 71
beru f 71
refle ct</w> 71
continu es</w> 71
dopp el 71
kultur ellen</w> 71
transpar ency</w> 71
frem den</w> 71
scri p 71
foot print</w> 71
sensor en</w> 71
trag ö 71
privi lege</w> 71
ries iges</w> 71
guar an 71
konzep te</w> 71
ale x</w> 71
dutz end</w> 71
kapu tt</w> 71
friend ly</w> 71
chimpanze es</w> 71
l. a.</w> 71
ridicul ous</w> 71
o th 70
e uren</w> 70
d ele 70
i ri 70
f ter</w> 70
u um</w> 70
b ak 70
s ses</w> 70
s alt</w> 70
s anta</w> 70
w an</w> 70
w ale</w> 70
j as 70
an ruf</w> 70
st ün 70
al tes</w> 70
ar ctic</w> 70
li est</w> 70
li ve 70
ti l 70
re ef</w> 70
ge ous</w> 70
ge sto 70
be et 70
be für 70
ver ließ</w> 70
as en</w> 70
as ha</w> 70
ri ght- 70
le cture</w> 70
de va 70
ra ti 70
vi et</w> 70
dies mal</w> 70
op i 70
la ger 70
na ked</w> 70
su mme</w> 70
ci a</w> 70
po x</w> 70
men tiert</w> 70
so viet</w> 70
ca p</w> 70
par ties</w> 70
sh ops</w> 70
spi tzen</w> 70
min d- 70
fir m</w> 70
kin des</w> 70
groß zü 70
produ ces</w> 70
ko so 70
19 50</w> 70
kr ü 70
ster ed</w> 70
ler nten</w> 70
bri tischen</w> 70
belie b 70
va tions</w> 70
land ed</w> 70
mis sed</w> 70
ner ven</w> 70
pho eni 70
kop f- 70
cur ren 70
ban ken</w> 70
over come</w> 70
masch in 70
199 4</w> 70
besi e 70
air craft</w> 70
rech ner</w> 70
thro wn</w> 70
hon est 70
fru it</w> 70
dia gram</w> 70
span nung</w> 70
diver se</w> 70
ug ly</w> 70
effizi ent</w> 70
verletz ungen</w> 70
fascin ated</w> 70
chea per</w> 70
benutz te</w> 70
benutz ten</w> 70
legi ti 70
terror ism</w> 70
katastrop hen</w> 70
insu lin</w> 70
recy cling</w> 70
spor ts</w> 70
wit ness</w> 70
janu ary</w> 70
disku tieren</w> 70
occasi on 70
parado x</w> 70
trage dy</w> 70
affor dable</w> 70
dark ness</w> 70
hawai i</w> 70
kev in</w> 70
a es 69
a ero 69
d r</w> 69
y ours</w> 69
c any 69
u t</w> 69
z et 69
j ar 69
in halte</w> 69
er b 69
an fan 69
ch - 69
st res 69
li kes</w> 69
sch ol 69
di oxid</w> 69
ge mä 69
be tro 69
be festi 69
ver sprechen</w> 69
le e</w> 69
le th 69
no bel</w> 69
ra cy</w> 69
se ats</w> 69
ter rain</w> 69
bu g</w> 69
hi tze</w> 69
go li 69
mo ore</w> 69
bi er</w> 69
zu kommen</w> 69
ck ers</w> 69
tu bes</w> 69
ci sts</w> 69
ru ft</w> 69
sti g 69
bo hr 69
tr ary</w> 69
mp f</w> 69
aus sen</w> 69
aus schließlich</w> 69
kom pe 69
mor ous</w> 69
chi ef</w> 69
pi g</w> 69
tra je 69
ber lin</w> 69
kon go</w> 69
kon gress</w> 69
sin gly</w> 69
neu lich</w> 69
milli meter</w> 69
hin sichtlich</w> 69
ess ing</w> 69
ün f 69
nach denkt</w> 69
20 11</w> 69
teil te</w> 69
kno chen 69
bewe gungs 69
verschie den</w> 69
kti ert</w> 69
billi g</w> 69
ach tet</w> 69
bor ders</w> 69
vern ünf 69
fli p</w> 69
bru ch 69
han ging</w> 69
goo d 69
äl ter 69
cat astro 69
provi des</w> 69
künst liche</w> 69
geni us</w> 69
sex y</w> 69
priv aten</w> 69
intelligen te</w> 69
industri es</w> 69
exper tise</w> 69
beri a</w> 69
wör ter 69
capi ta</w> 69
universi täten</w> 69
than e</w> 69
gewis ser 69
innova tions</w> 69
histor ical</w> 69
ath ie</w> 69
demon strate</w> 69
constru ct</w> 69
ball s</w> 69
logi k</w> 69
maga zin</w> 69
staat s 69
recei ve</w> 69
chirur gen</w> 69
sensor s</w> 69
musc les</w> 69
afrikani sche</w> 69
ruhi g</w> 69
primi tive</w> 69
travel ed</w> 69
zw öl 69
lor d</w> 69
begren zt</w> 69
speak er</w> 69
behör de</w> 69
standar d 69
dienst leistungen</w> 69
ipo d</w> 69
geschma ck</w> 69
capitali sm</w> 69
palä stin 69
erdbe ben</w> 69
gedäch tnis</w> 69
orchestr a</w> 69
mem bran 69
ministeri um</w> 69
k an</w> 68
p an</w> 68
p ly</w> 68
d der</w> 68
y an</w> 68
s ers</w> 68
ä thi 68
er richten</w> 68
al t 68
es cape</w> 68
li en</w> 68
ti red</w> 68
ti cket</w> 68
el se 68
ein richtung</w> 68
ou ri 68
ge eig 68
ge messen</w> 68
be vorzu 68
le go</w> 68
le wis</w> 68
the orien</w> 68
ent liche</w> 68
bu ck 68
te stet</w> 68
op ens</w> 68
bi p</w> 68
je ff</w> 68
ex po 68
ex pli 68
con sequence</w> 68
ja il</w> 68
inter vention</w> 68
ger weise</w> 68
bes e 68
vor wärts</w> 68
kl in 68
lich ter</w> 68
lich keits 68
ir ri 68
str ä 68
ad vi 68
pla ys</w> 68
col ony</w> 68
kan al</w> 68
ef s</w> 68
exa kt</w> 68
har m 68
schn elle</w> 68
irgend was</w> 68
posi tions</w> 68
vo ted</w> 68
lau t 68
dro ve</w> 68
wat ts</w> 68
imag ined</w> 68
oper ations</w> 68
schul ter</w> 68
häl ter</w> 68
archite ctural</w> 68
wieder holt</w> 68
disco ver 68
schließ end</w> 68
stör ung</w> 68
gewöhn lich</w> 68
wasser stoff</w> 68
rat s</w> 68
sil ent</w> 68
aspe cts</w> 68
klein ere</w> 68
ted talks</w> 68
symp hon 68
grundle gend</w> 68
sear ching</w> 68
ethi cal</w> 68
bö sen</w> 68
quar ters</w> 68
konfli kte</w> 68
konsu menten</w> 68
video spiele</w> 68
glas ses</w> 68
small pox</w> 68
volunte ers</w> 68
succe ed</w> 68
refu ge 68
enha gen</w> 68
earth quake</w> 68
ingre dients</w> 68
k g</w> 67
k alten</w> 67
k ette</w> 67
a a 67
p lot</w> 67
t ated</w> 67
r he 67
r unter 67
r ated</w> 67
m one</w> 67
y stem</w> 67
y fish</w> 67
h arb 67
h mm</w> 67
b ör 67
1 30</w> 67
' 60s</w> 67
4 ,000</w> 67
an es 67
an wei 67
an führer</w> 67
al as 67
al bu 67
li mb</w> 67
or es 67
ein gehen</w> 67
on t 67
re moved</w> 67
di ct 67
ro yal</w> 67
be wäl 67
be zahl 67
be trägt</w> 67
yo r</w> 67
sa g</w> 67
vi bra 67
ter in</w> 67
sp ag 67
op y</w> 67
gi ble</w> 67
mo tors</w> 67
ho o 67
ta gs</w> 67
je wish</w> 67
aus wei 67
he arts</w> 67
än den</w> 67
mm er 67
mm el 67
pu mp</w> 67
pu lling</w> 67
us alem</w> 67
her steller</w> 67
pa pa</w> 67
ga ther</w> 67
bei trag</w> 67
pi er 67
pi cking</w> 67
ber at 67
sh opping</w> 67
sta ges</w> 67
kl at 67
viel er</w> 67
hei ß 67
str en 67
tro pfen</w> 67
ad ding</w> 67
ken ne 67
dat ing</w> 67
ko p</w> 67
sei de</w> 67
sur faces</w> 67
20 .000</w> 67
sie b 67
grö s 67
dri ll</w> 67
tin a 67
kno ten</w> 67
mati schen</w> 67
musi cians</w> 67
lar ry</w> 67
glob alization</w> 67
glob alisierung</w> 67
cra ck</w> 67
stre cken</w> 67
oper a</w> 67
schul dig</w> 67
person ality</w> 67
ku chen</w> 67
zurück kommen</w> 67
lehr ern</w> 67
fig uren</w> 67
außer ord 67
thi ck</w> 67
krei ert</w> 67
see k</w> 67
fest gestellt</w> 67
temp o</w> 67
hon ey</w> 67
enor men</w> 67
predi ctable</w> 67
persön lichkeit</w> 67
inclu des</w> 67
inte gra 67
fab ul 67
strei fen</w> 67
papi er 67
brie fly</w> 67
logi cal</w> 67
symme trie</w> 67
ow ned</w> 67
tradition elle</w> 67
photograph y</w> 67
quali ties</w> 67
arch y</w> 67
regel mäßig</w> 67
weib liche</w> 67
höch ste</w> 67
vulner ability</w> 67
assemb ly</w> 67
zukünf tigen</w> 67
pyrami d</w> 67
determin ed</w> 67
repräsen tiert</w> 67
rescu e</w> 67
integr ated</w> 67
broo kl 67
prax is</w> 67
jose ph</w> 67
höhe punkt</w> 67
sacre d</w> 67
a o</w> 66
a ches</w> 66
p ani 66
n n</w> 66
m .</w> 66
c ute</w> 66
g al</w> 66
g lie 66
g ated</w> 66
g let 66
h st</w> 66
. org</w> 66
3 4</w> 66
5 0- 66
ä sthe 66
in ju 66
an streng 66
en er</w> 66
au tismus</w> 66
ab fall</w> 66
ab ends</w> 66
ge h</w> 66
ge gessen</w> 66
ge startet</w> 66
ge zwungen</w> 66
be am 66
ver fol 66
le vi 66
ol dest</w> 66
lo ws</w> 66
pro stitu 66
la id</w> 66
ru anda</w> 66
sti scher</w> 66
con temporary</w> 66
bo x 66
gr ä 66
qu er 66
qu est</w> 66
ju pi 66
tt s 66
fro g</w> 66
par la 66
chi le</w> 66
rei s</w> 66
ul tr 66
sh ore</w> 66
sta mmen</w> 66
gel ä 66
ir ani 66
um stände</w> 66
kin gs</w> 66
geb au 66
gesch ri 66
glei cht</w> 66
fan t 66
sho ts</w> 66
ba gs</w> 66
app l 66
cho sen</w> 66
wri ters</w> 66
cli mb 66
mul tina 66
colle cting</w> 66
elec tions</w> 66
expe ct 66
gebäu des</w> 66
besi tzer</w> 66
prei s 66
sal es</w> 66
schli mm</w> 66
bom ben</w> 66
stä mme</w> 66
dien ste</w> 66
krea tiv</w> 66
hig gs- 66
setz ungen</w> 66
enth ü 66
ted talk</w> 66
gui de</w> 66
fabri ken</w> 66
separ ated</w> 66
kommunika tions 66
partici p 66
electr onics</w> 66
teles kop</w> 66
allge mein</w> 66
associ ation</w> 66
preci se</w> 66
domin ant</w> 66
agri cultural</w> 66
life - 66
entscheiden de</w> 66
law yers</w> 66
-jähri ge</w> 66
neighb or</w> 66
thera pi 66
facili ty</w> 66
conc ern</w> 66
gewand t</w> 66
phan tom</w> 66
syl via</w> 66
begri ffen</w> 66
custom ers</w> 66
ärm sten</w> 66
alex ander</w> 66
repar ieren</w> 66
boundar ies</w> 66
homo sexu 66
dedi cated</w> 66
kapitali smus</w> 66
ib m</w> 66
inklu sive</w> 66
reicht um</w> 66
else where</w> 66
a ster</w> 65
p p</w> 65
e chtes</w> 65
d in</w> 65
d dy</w> 65
i - 65
m essen 65
l ens</w> 65
l är 65
c lon 65
f alle</w> 65
' 70s</w> 65
j ü 65
er langen</w> 65
er setzt</w> 65
er öffnet</w> 65
an den</w> 65
an bieten</w> 65
ei sen 65
di pl 65
ab and 65
ma ssen</w> 65
be deckt</w> 65
ver kün 65
ver liebt</w> 65
le ft- 65
ra ys</w> 65
ur he 65
ur kn 65
lo ser</w> 65
ac ted</w> 65
ent gegen 65
fi t 65
mo toren</w> 65
wei gh 65
com mitted</w> 65
ck - 65
ell ed</w> 65
ges unden</w> 65
wer det</w> 65
to ma 65
ru t 65
ex cu 65
mp ing</w> 65
gr ession</w> 65
fe ars</w> 65
mor ality</w> 65
her ange 65
inter acting</w> 65
inter actions</w> 65
par all 65
pi one 65
hal ts 65
sta tic</w> 65
kon sum</w> 65
zei len</w> 65
gel b</w> 65
wo hnen</w> 65
min es</w> 65
ph . 65
um gang</w> 65
gh ters</w> 65
wür dest</w> 65
stor m</w> 65
ob li 65
chti g</w> 65
str eit</w> 65
groß vater</w> 65
milli on 65
fä r 65
nach rich 65
produ kten</w> 65
ki ck</w> 65
geschi chten 65
19 80</w> 65
ster nen</w> 65
stra ig 65
arti cles</w> 65
teil s</w> 65
proz ent 65
kno pf</w> 65
ini tial</w> 65
belie fs</w> 65
har ry</w> 65
physi cist</w> 65
mus limi 65
gegen stand</w> 65
por tion</w> 65
robo tic</w> 65
cli ents</w> 65
sozi al</w> 65
contro ls</w> 65
schü lern</w> 65
ban ks</w> 65
engli schen</w> 65
cir cles</w> 65
ern d</w> 65
199 8</w> 65
foc using</w> 65
flü cht 65
biologi sts</w> 65
berü hmt</w> 65
consu me</w> 65
will kommen</w> 65
statisti k</w> 65
proto typen</w> 65
wohl befinden</w> 65
depres sed</w> 65
invi te</w> 65
schreck liche</w> 65
ignor e</w> 65
spei cher</w> 65
obser vation</w> 65
täu schung</w> 65
hypo the 65
cele br 65
gü ter</w> 65
begei ster 65
collea gue</w> 65
sensor y</w> 65
strategi es</w> 65
jer usalem</w> 65
teena gers</w> 65
terror ismus</w> 65
atlan ta</w> 65
acade my</w> 65
repe at</w> 65
treib haus 65
gestal tung</w> 65
open- source</w> 65
blick winkel</w> 65
crimin als</w> 65
janu ar</w> 65
admini stration</w> 65
announ ced</w> 65
spun kt</w> 65
vä ter</w> 65
mamm als</w> 65
sku ll</w> 65
koh le 65
joshu a</w> 65
spag he 65
p fa 64
o o 64
o is</w> 64
o hr</w> 64
e den</w> 64
e than 64
d ges</w> 64
l oud</w> 64
g arb 64
h lich</w> 64
h olo 64
s ca 64
s ori 64
s ang</w> 64
v ali 64
9 8</w> 64
j ing</w> 64
j ell 64
th ur</w> 64
in ches</w> 64
er re 64
an gehen</w> 64
an fängt</w> 64
st ones</w> 64
el and</w> 64
au st 64
re ments</w> 64
re turned</w> 64
di c</w> 64
di ff 64
ge ck 64
be stra 64
at om</w> 64
le ster 64
le gten</w> 64
de bt</w> 64
se att 64
ni mm</w> 64
ni ght 64
lo aded</w> 64
vi ral</w> 64
te i</w> 64
te ars</w> 64
la yers</w> 64
na tive</w> 64
ho ods</w> 64
ta tionen</w> 64
pe er</w> 64
to y</w> 64
to te</w> 64
ex posed</w> 64
do ktor</w> 64
con tains</w> 64
ju gend</w> 64
br äu 64
auf trag</w> 64
pa tion</w> 64
ger - 64
ger ade 64
bei jing</w> 64
rea giert</w> 64
vor n</w> 64
kon z 64
kon tra 64
mon y</w> 64
under ground</w> 64
ke - 64
neu ral</w> 64
star t 64
gesch lossen 64
ad vo 64
wie viele</w> 64
col oni 64
poli cies</w> 64
20 20</w> 64
passi ve</w> 64
ima ging</w> 64
informa tion 64
proz ess 64
proz esse</w> 64
glob ally</w> 64
ange bot</w> 64
schri tten</w> 64
por tu 64
kor allen 64
clu ster</w> 64
hil frei 64
contro ll 64
sicher er</w> 64
dau ghters</w> 64
kol onie</w> 64
forsch ungen</w> 64
hor mone</w> 64
thir ds</w> 64
redu ced</w> 64
schä tz 64
mel zen</w> 64
pain ted</w> 64
hun gry</w> 64
expla ining</w> 64
practi ces</w> 64
neuro science</w> 64
repres ent 64
open ness</w> 64
profi le</w> 64
kompli zierte</w> 64
lun gen 64
entwicklungs länder</w> 64
constru cted</w> 64
ball on</w> 64
repor ter</w> 64
photograph ed</w> 64
contribu te</w> 64
nur se</w> 64
nur ses</w> 64
früh eren</w> 64
conclu de</w> 64
quadr at</w> 64
schlimm ste</w> 64
brust krebs</w> 64
europä ischen</w> 64
percei ve</w> 64
mikrosk op</w> 64
erzieh ung</w> 64
propa g 64
connect ome</w> 64
übertra gung</w> 64
excu se</w> 64
k lear 63
k tar</w> 63
o es</w> 63
d ney</w> 63
f ts</w> 63
u mp 63
b elt</w> 63
w k</w> 63
w und 63
2 .000</w> 63
z - 63
4 2</w> 63
an o 63
en dete</w> 63
al ko 63
al bert</w> 63
li fes 63
el tern 63
sch ne 63
sch all</w> 63
di ve</w> 63
di chter</w> 63
di stur 63
ab sur 63
ma xi 63
ro lling</w> 63
be wahr 63
be freien</w> 63
ver brauchen</w> 63
ver teilen</w> 63
ver tical</w> 63
as sign 63
no bel 63
lo tter 63
mi ce</w> 63
mi gration</w> 63
ent stehung</w> 63
gi en</w> 63
gi pfel</w> 63
bi op 63
ho h 63
zu cker 63
ta gs 63
ges ün 63
je ffer 63
pe p 63
pe sti 63
po et</w> 63
tion ing</w> 63
nu cle 63
kö pfen</w> 63
mp fen</w> 63
aus gehen</w> 63
co operation</w> 63
du mm</w> 63
pa tho 63
ber ry</w> 63
sen dung</w> 63
kon ven 63
gra fie</w> 63
fu tter</w> 63
dan iel</w> 63
hin weis</w> 63
lin e 63
lin ke</w> 63
fre un 63
fl at 63
ce o</w> 63
19 00</w> 63
kr ö 63
schie ben</w> 63
spiel s</w> 63
arti stic</w> 63
wal t</w> 63
cro ps</w> 63
ange trieben</w> 63
kor ri 63
evol ve</w> 63
bau ch 63
bau er</w> 63
ausge bildet</w> 63
geri ssen</w> 63
gren z 63
fla g 63
199 5</w> 63
inten ded</w> 63
inde x</w> 63
metho ds</w> 63
rat ten</w> 63
disa p 63
emer ge</w> 63
emer ged</w> 63
inte gration</w> 63
depres si 63
origin ally</w> 63
rä um 63
schwer er</w> 63
brü der</w> 63
ignor ieren</w> 63
repor ts</w> 63
repor ted</w> 63
chirur g</w> 63
contra ct</w> 63
spek ta 63
exten ded</w> 63
blut gefä 63
cros sing</w> 63
einzigarti g</w> 63
dolph in</w> 63
überprü fen</w> 63
komb inieren</w> 63
beschei d</w> 63
jähr lich</w> 63
christi an</w> 63
sui cide</w> 63
spin al</w> 63
nahe zu</w> 63
expec tations</w> 63
glüh bir 63
ungeheu er</w> 63
p s- 62
t ous</w> 62
e go</w> 62
d ress</w> 62
m un 62
l o</w> 62
c i</w> 62
c lar 62
g ase</w> 62
h ans</w> 62
u bi 62
b einen</w> 62
b äumen</w> 62
3 1</w> 62
4 3</w> 62
in jury</w> 62
er e 62
er al</w> 62
er endes</w> 62
ch sen</w> 62
en counter</w> 62
un i</w> 62
al i</w> 62
ti gten</w> 62
ein kommen 62
re act</w> 62
sch lange</w> 62
di stra 62
ab wei 62
ge öffnet</w> 62
be ur 62
ver zer 62
ver lang 62
ver braucht</w> 62
de vil</w> 62
ra ff 62
se as</w> 62
ni ck</w> 62
mi gra 62
sp in</w> 62
wa cht</w> 62
wa schen</w> 62
der t</w> 62
te en</w> 62
gi ge</w> 62
gen ce</w> 62
me al</w> 62
mo chte</w> 62
zu g 62
zu letzt</w> 62
fa vor</w> 62
fa thers</w> 62
nu klear 62
aus sterben</w> 62
aus wirkung</w> 62
än gste</w> 62
gl aci 62
auf recht</w> 62
auf stieg</w> 62
fin ds</w> 62
bes pre 62
spi tz 62
sen ior</w> 62
sta hl 62
ben s 62
tri bes</w> 62
under lying</w> 62
geb lieben</w> 62
sc ales</w> 62
fun ction 62
hin gehen</w> 62
fer tigen</w> 62
vol ks 62
komm st</w> 62
fahr rad</w> 62
stra f 62
stra hlen</w> 62
bar ely</w> 62
zä hl 62
bewe gte</w> 62
zwei tes</w> 62
har te</w> 62
stand punkt</w> 62
politi sch</w> 62
gemein schaft 62
organi zing</w> 62
kt on</w> 62
app s</w> 62
welt all</w> 62
sha dow</w> 62
eg g</w> 62
einzi ges</w> 62
schle ch 62
schrei be</w> 62
erinn erte</w> 62
ku h</w> 62
flie ß 62
tau ch 62
chemi schen</w> 62
fla g</w> 62
erwar tete</w> 62
gewöhn liche</w> 62
tex ts</w> 62
mil o</w> 62
pflan zen 62
fru stration</w> 62
auth or</w> 62
imm uni 62
wol le</w> 62
sle eping</w> 62
histor i 62
disc uss</w> 62
profi tieren</w> 62
telef one</w> 62
dinosau r</w> 62
tori es</w> 62
beschrei bung</w> 62
smo s</w> 62
fabri c</w> 62
geo graphi 62
confli cts</w> 62
allge meine</w> 62
bedürf nis</w> 62
schwan z</w> 62
eco systems</w> 62
demokra ti 62
auff as 62
portra its</w> 62
nutri tion</w> 62
smar t 62
entschul digung</w> 62
remin ded</w> 62
banglades h</w> 62
sier ra</w> 62
alphab et</w> 62
excell ent</w> 62
real m</w> 62
gewisser maßen</w> 62
discover ies</w> 62
fabul ous</w> 62
k as 61
p it</w> 61
o . 61
t to 61
t nik</w> 61
e e 61
e din 61
i erten</w> 61
g le- 61
j ack 61
in formed</w> 61
in mitten</w> 61
er öff 61
al ty</w> 61
li b 61
li ter</w> 61
ti ous</w> 61
ti ka</w> 61
re con 61
ou se</w> 61
be fassen</w> 61
be trieb</w> 61
ver hei 61
ver stär 61
le xi 61
le verage</w> 61
de ar</w> 61
pro mo 61
pro per</w> 61
pro state</w> 61
hi tting</w> 61
fi lling</w> 61
wen det</w> 61
for mal</w> 61
ta schen</w> 61
ru fe</w> 61
and ed</w> 61
bo ss</w> 61
zi r 61
all ed</w> 61
aus reich 61
gl ed</w> 61
pp y</w> 61
ja gen</w> 61
pu r</w> 61
auf zeichnungen</w> 61
her ein</w> 61
ca ke</w> 61
par tei</w> 61
bei tragen</w> 61
sh it</w> 61
vor gestellt</w> 61
sta irs</w> 61
kl ü 61
kl ingen</w> 61
dur fte</w> 61
tri be</w> 61
tri ck 61
wo durch</w> 61
unter halb</w> 61
schi ff 61
um geb 61
gesch la 61
fol ding</w> 61
ele y</w> 61
ele gan 61
ele cted</w> 61
ce u 61
sei l</w> 61
jo y 61
spiel ten</w> 61
ameri kas</w> 61
sie ben 61
ap oll 61
wissen s 61
hau t 61
bedeu tend</w> 61
lö st</w> 61
schu f</w> 61
irgend einer</w> 61
sub si 61
ag ent</w> 61
gefü gt</w> 61
welt weite</w> 61
essi ons</w> 61
sozi aler</w> 61
bru sh</w> 61
fel d 61
wunder schön</w> 61
lab s</w> 61
glück liche</w> 61
cap ability</w> 61
zeit ungen</w> 61
bre m 61
cep tions</w> 61
erle digen</w> 61
trau m 61
alisi erten</w> 61
dom s</w> 61
dom ini 61
enga ging</w> 61
tis su 61
kämp ft</w> 61
beru hi 61
disk us 61
smo oth</w> 61
west liche</w> 61
jan e</w> 61
nachhal tig</w> 61
nachhal tigkeit</w> 61
attra ct</w> 61
transpar enz</w> 61
ehe mali 61
erfü llt</w> 61
weap on</w> 61
toll es</w> 61
sum men 61
fau lt</w> 61
schlimm sten</w> 61
gerü st</w> 61
konstru ieren</w> 61
toile tte</w> 61
zusätz liche</w> 61
verkehr s 61
tha iland</w> 61
resili ence</w> 61
insur ance</w> 61
ethiop ia</w> 61
cry st 61
neugieri g</w> 61
curricul um</w> 61
noch mals</w> 61
brookl yn</w> 61
expect ancy</w> 61
garb age</w> 61
aust ausch</w> 61
seatt le</w> 61
a ms</w> 60
d ns</w> 60
l est</w> 60
c et 60
f ers</w> 60
f ting</w> 60
b c</w> 60
b les</w> 60
s hal 60
w inning</w> 60
an trieb</w> 60
an sichten</w> 60
an näher 60
ch eln</w> 60
li ge</w> 60
ma r</w> 60
be cken</w> 60
ri eren</w> 60
ri chter</w> 60
no - 60
de vi 60
si sters</w> 60
sa cri 60
mi ll</w> 60
mi ert</w> 60
sp ü 60
bu ff 60
bu ried</w> 60
hi mala 60
gi b</w> 60
me thane</w> 60
hab ili 60
ho sti 60
for ts</w> 60
tu des</w> 60
ta p</w> 60
ta tive</w> 60
pe ers</w> 60
ex clu 60
con tain</w> 60
con tain 60
con cei 60
aus macht</w> 60
kön n 60
he bt</w> 60
auf treten</w> 60
inter nets</w> 60
man nes</w> 60
ca ve</w> 60
pi lo 60
tra inieren</w> 60
bes chi 60
ber fläche</w> 60
vor kommen</w> 60
vor les 60
ka p 60
kon kre 60
lu ck</w> 60
mö r 60
gel aufen</w> 60
gel ände</w> 60
über gang</w> 60
is es</w> 60
son n 60
ke i</w> 60
pas sage</w> 60
ki ste</w> 60
indi re 60
20 30</w> 60
teil nehmen</w> 60
che ese</w> 60
win ds</w> 60
größ enor 60
hir n</w> 60
poin ting</w> 60
wissen s</w> 60
stan de</w> 60
stri eren</w> 60
öff entlich</w> 60
ba th 60
ner ve</w> 60
tan a</w> 60
tan ts</w> 60
schla u</w> 60
bor d</w> 60
kop ieren</w> 60
plat ten</w> 60
fel sen</w> 60
wunder schönen</w> 60
lebens qualität</w> 60
bac ks</w> 60
archite kt</w> 60
bat s</w> 60
gerä ten</w> 60
ate ful</w> 60
see ds</w> 60
trä nen</w> 60
micro - 60
199 7</w> 60
199 0s</w> 60
auszu drücken</w> 60
oc tober</w> 60
erle digt</w> 60
mil ch 60
investi tion</w> 60
mittel punkt</w> 60
stau b</w> 60
atom e</w> 60
drei mal</w> 60
mani fe 60
predi cted</w> 60
predi ctions</w> 60
moder ni 60
geneti cs</w> 60
freu t</w> 60
consci ously</w> 60
untersu chungen</w> 60
gla d</w> 60
gla morous</w> 60
vac uum</w> 60
ow ner</w> 60
ferti g 60
wün schen</w> 60
ingeni eur</w> 60
liber al</w> 60
kohlen dioxid</w> 60
schaff te</w> 60
schaff ten</w> 60
heli cop 60
kontin u 60
gü te</w> 60
ursprün gliche</w> 60
behaup te</w> 60
acci dents</w> 60
form at</w> 60
unterschei det</w> 60
außergewöhn liche</w> 60
festi val</w> 60
orche ster</w> 60
john ny</w> 60
carto ons</w> 60
religiö se</w> 60
zukünf tige</w> 60
ultra vio 60
gentle man</w> 60
impf stoff</w> 60
gather ing</w> 60
characteri stics</w> 60
syndro m</w> 60
gment ed</w> 60
geschü tzt</w> 60
suggest ing</w> 60
aka demi 60
null summen 60
verlan gt</w> 60
unbelie vable</w> 60
pazifi k</w> 60
shri mp</w> 60
symb ols</w> 60
aben dessen</w> 60
leth al</w> 60
nachrich ten 60
a ged</w> 59
i ed</w> 59
l ese</w> 59
y m 59
f da</w> 59
8 0 59
w einen</w> 59
3 0,000</w> 59
j ur 59
th us</w> 59
th ank 59
er zielen</w> 59
ar a</w> 59
ar ten 59
ar gent 59
li on</w> 59
ti p</w> 59
el f</w> 59
au stau 59
on kel</w> 59
ma inst 59
ro b 59
ro of 59
ge testet</w> 59
be grü 59
ver arbeiten</w> 59
ri cher</w> 59
se m</w> 59
se mi 59
ha cker</w> 59
vi erten</w> 59
der ly</w> 59
hi v 59
fü ll 59
la gern</w> 59
da k 59
wor thy</w> 59
bi c</w> 59
bi ll 59
for gotten</w> 59
we cken</w> 59
per pe 59
ru m 59
con vi 59
wir bel 59
bo und</w> 59
zi elt</w> 59
aus führen</w> 59
ste am</w> 59
gan z 59
her es</w> 59
par tly</w> 59
pi tch</w> 59
ali ce</w> 59
hal ben</w> 59
ka ffe 59
gra ce</w> 59
lu ck 59
fo unded</w> 59
lan dete</w> 59
über setzt</w> 59
min imum</w> 59
tur key</w> 59
ken s</w> 59
fre d</w> 59
fl ung</w> 59
fer tigt</w> 59
ko ta</w> 59
col on 59
experi mental</w> 59
proz esses</w> 59
it - 59
irgend ein</w> 59
ange stellten</w> 59
ange passt</w> 59
cra ig</w> 59
por e</w> 59
wat ers</w> 59
weiter machen</w> 59
flo ws</w> 59
cha irs</w> 59
fli ck 59
frü hl 59
wunder vollen</w> 59
up set</w> 59
revol ution 59
erfol gs 59
shar p</w> 59
essen ce</w> 59
offen heit</w> 59
fehl er 59
rech nung</w> 59
del ph 59
schwar zes</w> 59
änder te</w> 59
instru ctions</w> 59
spro ble 59
deli vered</w> 59
analy ze</w> 59
kapi tal 59
bla h</w> 59
universi ties</w> 59
histor ic</w> 59
tun a</w> 59
kinder sterblichkeit</w> 59
treat ments</w> 59
dete ction</w> 59
success fully</w> 59
eur o</w> 59
ord nen</w> 59
wander ing</w> 59
mär kten</w> 59
nachhal tige</w> 59
willi am</w> 59
mix ed</w> 59
bemerkens werte</w> 59
fes th 59
dep th</w> 59
geno cide</w> 59
unsicht bar</w> 59
recy c 59
visi ted</w> 59
budd ha</w> 59
rand om 59
syndro me</w> 59
optimis m</w> 59
optimis mus</w> 59
skulp tur</w> 59
diszi pl 59
regre t</w> 59
eingesch rän 59
wheel chair</w> 59
vermitt elt</w> 59
mcdon ald</w> 59
anhän ger</w> 59
rar ely</w> 59
berk eley</w> 59
curren cy</w> 59
jupi ter</w> 59
dipl om 59
propag anda</w> 59
jeffer son</w> 59
a c</w> 58
a ti 58
e ks</w> 58
i le</w> 58
i tal 58
g ps- 58
f es</w> 58
b ungen</w> 58
b ye</w> 58
s . 58
v ance</w> 58
z enten</w> 58
j or 58
4 , 58
th res 58
th um 58
er kunden</w> 58
er fuhr</w> 58
an nu 58
an gles</w> 58
ch at 58
en ed</w> 58
st ops</w> 58
ar ray</w> 58
li erung</w> 58
or ie</w> 58
or gas 58
ein wohner</w> 58
re bel 58
re cep 58
sch nee</w> 58
di k 58
di gte</w> 58
ab use</w> 58
ma yor</w> 58
be ars</w> 58
be treten</w> 58
be zogen</w> 58
at em</w> 58
at titude</w> 58
mi mi 58
vi tal</w> 58
ne un 58
ent zün 58
pro g 58
pro mote</w> 58
op e</w> 58
fü ßen</w> 58
da tions</w> 58
zu kun 58
su chten</w> 58
pe er- 58
to w 58
to de</w> 58
do - 58
do cu 58
co ke</w> 58
gl ori 58
